/*
 * Compact CNN1D Model for Arduino
 * Size: 11.75 KB
 * Test Accuracy: 100.00%
 */

#ifndef CNN1D_COMPACT_MODEL_H
#define CNN1D_COMPACT_MODEL_H

const unsigned int cnn1d_model_len = 12032;

alignas(8) const unsigned char cnn1d_model_data[] = {
0x1c, 0x00, 0x00, 0x00, 0x54, 0x46, 0x4c, 0x33, 0x14, 0x00, 0x20, 0x00, 0x1c, 0x00, 0x18, 0x00, 0x14, 0x00, 0x10, 0x00, 0x0c, 0x00, 0x00, 0x00, 0x08, 0x00, 0x04, 0x00, 0x14, 0x00, 0x00, 0x00, 0x1c, 0x00, 0x00, 0x00, 0x8c, 0x00, 0x00, 0x00, 0xe4, 0x00, 0x00, 0x00, 0x10, 0x10, 0x00, 0x00, 0x20, 0x10, 0x00, 0x00, 0x08, 0x2e, 0x00, 0x00, 0x03, 0x00, 0x00, 0x00, 0x01, 0x00, 0x00, 0x00, 0x04, 0x00, 0x00, 0x00, 0xa2, 0xec, 0xff, 0xff, 0x0c, 0x00, 0x00, 0x00, 0x1c, 0x00, 0x00, 0x00, 0x3c, 0x00, 0x00, 0x00, 0x0f, 0x00, 0x00, 0x00, 0x73, 0x65, 0x72, 0x76, 0x69, 0x6e, 0x67, 0x5f, 0x64, 0x65, 0x66, 0x61, 0x75, 0x6c, 0x74, 0x00, 0x01, 0x00, 0x00, 0x00, 0x04, 0x00, 0x00, 0x00, 0x90, 0xff, 0xff, 0xff, 0x20, 0x00, 0x00, 0x00, 0x04, 0x00, 0x00, 0x00, 0x08, 0x00, 0x00, 0x00, 0x6f, 0x75, 0x74, 0x70, 0x75, 0x74, 0x5f, 0x30, 0x00, 0x00, 0x00, 0x00, 0x01, 0x00, 0x00, 0x00, 0x04, 0x00, 0x00, 0x00, 0x82, 0xef, 0xff, 0xff, 0x04, 0x00, 0x00, 0x00, 0x0c, 0x00, 0x00, 0x00, 0x6b, 0x65, 0x72, 0x61, 0x73, 0x5f, 0x74, 0x65, 0x6e, 0x73, 0x6f, 0x72, 0x00, 0x00, 0x00, 0x00, 0x02, 0x00, 0x00, 0x00, 0x34, 0x00, 0x00, 0x00, 0x04, 0x00, 0x00, 0x00, 0xdc, 0xff, 0xff, 0xff, 0x23, 0x00, 0x00, 0x00, 0x04, 0x00, 0x00, 0x00, 0x13, 0x00, 0x00, 0x00, 0x43, 0x4f, 0x4e, 0x56, 0x45, 0x52, 0x53, 0x49, 0x4f, 0x4e, 0x5f, 0x4d, 0x45, 0x54, 0x41, 0x44, 0x41, 0x54, 0x41, 0x00, 0x08, 0x00, 0x0c, 0x00, 0x08, 0x00, 0x04, 0x00, 0x08, 0x00, 0x00, 0x00, 0x22, 0x00, 0x00, 0x00, 0x04, 0x00, 0x00, 0x00, 0x13, 0x00, 0x00, 0x00, 0x6d, 0x69, 0x6e, 0x5f, 0x72, 0x75, 0x6e, 0x74, 0x69, 0x6d, 0x65, 0x5f, 0x76, 0x65, 0x72, 0x73, 0x69, 0x6f, 0x6e, 0x00, 0x24, 0x00, 0x00, 0x00, 0x28, 0x0f, 0x00, 0x00, 0x20, 0x0f, 0x00, 0x00, 0x0c, 0x0f, 0x00, 0x00, 0xf0, 0x0e, 0x00, 0x00, 0xdc, 0x0e, 0x00, 0x00, 0xc0, 0x0e, 0x00, 0x00, 0xa4, 0x0e, 0x00, 0x00, 0x88, 0x0e, 0x00, 0x00, 0x64, 0x0e, 0x00, 0x00, 0xb4, 0x0d, 0x00, 0x00, 0x24, 0x0d, 0x00, 0x00, 0x14, 0x09, 0x00, 0x00, 0x84, 0x08, 0x00, 0x00, 0x74, 0x02, 0x00, 0x00, 0x24, 0x02, 0x00, 0x00, 0x24, 0x01, 0x00, 0x00, 0x1c, 0x01, 0x00, 0x00, 0x14, 0x01, 0x00, 0x00, 0x0c, 0x01, 0x00, 0x00, 0x04, 0x01, 0x00, 0x00, 0xfc, 0x00, 0x00, 0x00, 0xf4, 0x00, 0x00, 0x00, 0xec, 0x00, 0x00, 0x00, 0xe4, 0x00, 0x00, 0x00, 0xdc, 0x00, 0x00, 0x00, 0xd4, 0x00, 0x00, 0x00, 0xcc, 0x00, 0x00, 0x00, 0xc4, 0x00, 0x00, 0x00, 0xbc, 0x00, 0x00, 0x00, 0xb4, 0x00, 0x00, 0x00, 0xac, 0x00, 0x00, 0x00, 0xa4, 0x00, 0x00, 0x00, 0x9c, 0x00, 0x00, 0x00, 0x94, 0x00, 0x00, 0x00, 0x74, 0x00, 0x00, 0x00, 0x04, 0x00, 0x00, 0x00, 0x8e, 0xf0, 0xff, 0xff, 0x04, 0x00, 0x00, 0x00, 0x60, 0x00, 0x00, 0x00, 0x0c, 0x00, 0x00, 0x00, 0x08, 0x00, 0x0e, 0x00, 0x08, 0x00, 0x04, 0x00, 0x08, 0x00, 0x00, 0x00, 0x10, 0x00, 0x00, 0x00, 0x28, 0x00, 0x00, 0x00, 0x00, 0x00, 0x06, 0x00, 0x08, 0x00, 0x04, 0x00, 0x06, 0x00, 0x00, 0x00, 0x04, 0x00, 0x00, 0x00, 0x01, 0x00, 0x00, 0x00, 0xeb, 0x03, 0x00, 0x00, 0x0c, 0x00, 0x18, 0x00, 0x14, 0x00, 0x10, 0x00, 0x0c, 0x00, 0x04, 0x00, 0x0c, 0x00, 0x00, 0x00, 0x2e, 0x2d, 0xfd, 0xf1, 0x5d, 0x36, 0xd7, 0xa3, 0x02, 0x00, 0x00, 0x00, 0x02, 0x00, 0x00, 0x00, 0x04, 0x00, 0x00, 0x00, 0x06, 0x00, 0x00, 0x00, 0x32, 0x2e, 0x32, 0x30, 0x2e, 0x30, 0x00, 0x00, 0xfa, 0xf0, 0xff, 0xff, 0x04, 0x00, 0x00, 0x00, 0x10, 0x00, 0x00, 0x00, 0x31, 0x2e, 0x31, 0x34, 0x2e, 0x30, 0x00, 0x00, 0x00, 0x00, 0x00, 0x00, 0x00, 0x00, 0x00, 0x00, 0x28, 0xd4, 0xff, 0xff, 0x2c, 0xd4, 0xff, 0xff, 0x30, 0xd4, 0xff, 0xff, 0x34, 0xd4, 0xff, 0xff, 0x38, 0xd4, 0xff, 0xff, 0x3c, 0xd4, 0xff, 0xff, 0x40, 0xd4, 0xff, 0xff, 0x44, 0xd4, 0xff, 0xff, 0x48, 0xd4, 0xff, 0xff, 0x4c, 0xd4, 0xff, 0xff, 0x50, 0xd4, 0xff, 0xff, 0x54, 0xd4, 0xff, 0xff, 0x58, 0xd4, 0xff, 0xff, 0x5c, 0xd4, 0xff, 0xff, 0x60, 0xd4, 0xff, 0xff, 0x64, 0xd4, 0xff, 0xff, 0x68, 0xd4, 0xff, 0xff, 0x6c, 0xd4, 0xff, 0xff, 0x5e, 0xf1, 0xff, 0xff, 0x04, 0x00, 0x00, 0x00, 0xf0, 0x00, 0x00, 0x00, 0x43, 0xe8, 0x46, 0x7f, 0x1a, 0x1e, 0x42, 0x1f, 0xd8, 0x33, 0x27, 0x33, 0x63, 0xd1, 0x37, 0xd1, 0x5c, 0x46, 0xf4, 0x7f, 0x29, 0x84, 0x6e, 0x53, 0x15, 0x5f, 0xe9, 0x85, 0x40, 0x6c, 0x37, 0x87, 0x90, 0x2d, 0x8f, 0xda, 0xd7, 0x12, 0x24, 0x29, 0xa6, 0xc8, 0xea, 0x81, 0xb6, 0xcf, 0x1e, 0xb4, 0xb6, 0xef, 0xd0, 0x25, 0x7f, 0xa0, 0xf3, 0x64, 0xbf, 0x96, 0x49, 0xfd, 0xd2, 0x1f, 0x0c, 0xa0, 0xcf, 0x16, 0xd9, 0x9f, 0x38, 0x81, 0xe1, 0xea, 0xef, 0xf7, 0x21, 0x81, 0xcd, 0x40, 0x9f, 0x12, 0xd5, 0x8a, 0xfa, 0x21, 0xc6, 0x3f, 0xa1, 0xd1, 0x1b, 0xe2, 0xc9, 0xf2, 0x1b, 0xac, 0x3b, 0x6b, 0xf7, 0xf9, 0x7f, 0x98, 0x16, 0x25, 0x93, 0x3d, 0x46, 0xc6, 0xa4, 0x51, 0xa7, 0xb2, 0x76, 0x26, 0xdd, 0x36, 0x9f, 0xe2, 0x50, 0x81, 0x88, 0x37, 0x88, 0xfc, 0x2e, 0x81, 0xb9, 0x2f, 0xa3, 0xf5, 0x19, 0xcb, 0xbc, 0x36, 0xe2, 0x91, 0x16, 0x81, 0xe1, 0xe5, 0xcc, 0x1e, 0xce, 0x05, 0xd2, 0xc1, 0xab, 0x82, 0x81, 0x81, 0x84, 0xf9, 0x06, 0x7f, 0xc5, 0xc4, 0x1a, 0xd4, 0xd3, 0x05, 0xd2, 0x30, 0x31, 0xc7, 0xe8, 0x4a, 0x01, 0xb5, 0xa8, 0x1c, 0x27, 0x8b, 0x91, 0xc1, 0xa2, 0xff, 0x0a, 0x9f, 0xb7, 0x12, 0x81, 0xaa, 0xe3, 0xd3, 0xe3, 0x73, 0xf9, 0x95, 0xde, 0x42, 0xee, 0xe9, 0x23, 0x81, 0x45, 0x9b, 0x81, 0x62, 0xef, 0x4a, 0x62, 0xe1, 0x5a, 0x7f, 0x11, 0x21, 0x13, 0x98, 0xcf, 0x49, 0xe1, 0x16, 0x0a, 0x7f, 0x91, 0xe0, 0xe9, 0x1e, 0xc1, 0x35, 0xde, 0x2c, 0x44, 0xcf, 0xf9, 0x4f, 0x9b, 0xfb, 0xcb, 0x05, 0x31, 0x02, 0xe9, 0x36, 0x67, 0x54, 0x73, 0x7f, 0x28, 0x66, 0x30, 0x2f, 0x5a, 0xf2, 0xff, 0xff, 0x04, 0x00, 0x00, 0x00, 0x40, 0x00, 0x00, 0x00, 0x5b, 0x01, 0x00, 0x00, 0xaa, 0xfe, 0xff, 0xff, 0x77, 0xfe, 0xff, 0xff, 0xf3, 0xfb, 0xff, 0xff, 0xbe, 0x02, 0x00, 0x00, 0x39, 0xfe, 0xff, 0xff, 0xb1, 0x02, 0x00, 0x00, 0xf3, 0xfe, 0xff, 0xff, 0x0c, 0x06, 0x00, 0x00, 0x90, 0xf9, 0xff, 0xff, 0x1d, 0xfe, 0xff, 0xff, 0x8f, 0xfb, 0xff, 0xff, 0xb3, 0x03, 0x00, 0x00, 0xf5, 0xfc, 0xff, 0xff, 0x74, 0xff, 0xff, 0xff, 0xdb, 0x03, 0x00, 0x00, 0xa6, 0xf2, 0xff, 0xff, 0x04, 0x00, 0x00, 0x00, 0x00, 0x06, 0x00, 0x00, 0xeb, 0x36, 0x16, 0xd0, 0x10, 0xfe, 0x68, 0xfc, 0xec, 0x2c, 0xb1, 0x04, 0x39, 0xa5, 0xca, 0xf3, 0xc1, 0x7f, 0x4a, 0xd5, 0x20, 0x17, 0xe3, 0x37, 0x16, 0x49, 0x9f, 0x77, 0x41, 0x94, 0x1d, 0xdd, 0x04, 0x6a, 0x65, 0x05, 0x13, 0xda, 0x43, 0xd9, 0x45, 0xce, 0xfe, 0x0e, 0x1d, 0xf5, 0xad, 0x52, 0xc2, 0x2e, 0xcf, 0x3c, 0xdf, 0xcd, 0x2f, 0x67, 0x3b, 0xf3, 0x64, 0xa1, 0x7f, 0x35, 0x71, 0xc0, 0x0c, 0xd3, 0xd8, 0x17, 0x13, 0xff, 0x5c, 0x64, 0x3c, 0xa7, 0x36, 0xc2, 0x19, 0xd2, 0xfb, 0xfb, 0xc0, 0x27, 0xf5, 0x53, 0x36, 0xcd, 0x33, 0x20, 0x1d, 0xe5, 0x79, 0xef, 0x21, 0xfc, 0x77, 0xc9, 0x0b, 0x7b, 0xf8, 0xe8, 0xd0, 0xc2, 0x2f, 0xde, 0xd3, 0x9f, 0xd2, 0xf8, 0x08, 0x1d, 0x3b, 0x1e, 0xfc, 0x58, 0xdd, 0xeb, 0x3c, 0x8c, 0x2a, 0x0d, 0xed, 0xdd, 0x0a, 0x81, 0x2c, 0xb9, 0xfd, 0x05, 0xb3, 0x43, 0xdc, 0x04, 0x4a, 0xab, 0x0c, 0xd6, 0x2a, 0xfe, 0xbc, 0x44, 0xf8, 0xd0, 0x0f, 0x1c, 0x30, 0x85, 0xde, 0xef, 0x5c, 0x64, 0x2a, 0x62, 0x7a, 0xe2, 0x2b, 0xe5, 0xa7, 0x2c, 0xf7, 0xa0, 0xce, 0x0e, 0xe9, 0xc7, 0xe3, 0xf8, 0x24, 0x58, 0x52, 0xf2, 0xce, 0x1c, 0xdb, 0xa7, 0x5d, 0xf3, 0x02, 0x81, 0x1e, 0x3e, 0xef, 0x43, 0xf1, 0x3d, 0x6f, 0x05, 0x13, 0xd6, 0x2d, 0x43, 0x05, 0x3b, 0x29, 0x35, 0x2a, 0xf4, 0xb6, 0x46, 0x3f, 0x05, 0xb7, 0x3e, 0x42, 0xcb, 0x2a, 0x63, 0xee, 0xb3, 0x4e, 0x3b, 0x4b, 0x6b, 0x0e, 0x4a, 0xd5, 0x23, 0xac, 0xd7, 0x0d, 0x23, 0x0a, 0x6a, 0x10, 0x11, 0xfa, 0x66, 0x4c, 0xea, 0x18, 0x13, 0x24, 0x03, 0x9c, 0xf7, 0x7f, 0x14, 0x5e, 0x6a, 0x2c, 0x18, 0x59, 0x06, 0x40, 0x02, 0xc9, 0x3b, 0xb6, 0xc5, 0xc4, 0x14, 0x5c, 0x35, 0xf8, 0x43, 0xef, 0x30, 0xfc, 0x6e, 0x61, 0x50, 0xe0, 0x4b, 0x04, 0xdc, 0x9a, 0x46, 0x2d, 0xf2, 0x17, 0x17, 0xe5, 0x5f, 0x27, 0x7a, 0xf4, 0x68, 0xb4, 0xe2, 0x13, 0xe7, 0xd7, 0x12, 0x54, 0x7f, 0x06, 0x20, 0x18, 0x78, 0x6a, 0xd9, 0xc9, 0xac, 0x0a, 0xd0, 0xcd, 0xb0, 0x9f, 0x17, 0xd0, 0x0a, 0xe0, 0x2c, 0xcf, 0xf9, 0x7f, 0x0b, 0x05, 0xb8, 0x1d, 0x19, 0x0b, 0xa2, 0x20, 0x19, 0x26, 0xea, 0xc6, 0x34, 0x46, 0x45, 0x6e, 0xda, 0x0f, 0x19, 0xc0, 0x03, 0xcd, 0xca, 0xed, 0xdd, 0x17, 0x0b, 0xe6, 0x46, 0x16, 0x1b, 0xb7, 0x11, 0xab, 0xca, 0xfa, 0x08, 0xfe, 0xeb, 0x55, 0xe8, 0x3d, 0xb6, 0x58, 0x3e, 0x6f, 0xea, 0xd0, 0xf6, 0x1b, 0x46, 0x19, 0xec, 0x7c, 0x7f, 0x59, 0xbe, 0x43, 0xdf, 0x62, 0xe6, 0x62, 0xb4, 0xaa, 0x1e, 0x01, 0xf0, 0x14, 0xc1, 0x3e, 0x04, 0x53, 0xe3, 0x67, 0xb4, 0x4b, 0x2e, 0x2b, 0xc2, 0xdc, 0x47, 0xef, 0x4c, 0x0c, 0xcf, 0x7f, 0x7d, 0x3a, 0xa3, 0x05, 0xcb, 0xa6, 0x36, 0x05, 0x65, 0xda, 0xb1, 0x0a, 0x26, 0x2e, 0xc2, 0x61, 0xdd, 0x72, 0x18, 0x9e, 0x47, 0x03, 0xcf, 0x11, 0x0d, 0xec, 0xc0, 0x4a, 0x19, 0x56, 0xde, 0x09, 0x40, 0x18, 0x5a, 0x12, 0xfe, 0x13, 0xbd, 0x18, 0xc4, 0xac, 0xbd, 0x6b, 0xbd, 0x7f, 0xd0, 0x56, 0xef, 0x7c, 0xfc, 0x35, 0x55, 0x43, 0x85, 0x99, 0x25, 0xeb, 0x12, 0x2e, 0x06, 0x32, 0x4a, 0x39, 0xca, 0xcc, 0xfe, 0x0f, 0x5c, 0xfd, 0xe0, 0x0d, 0x64, 0xd7, 0x40, 0x53, 0xd5, 0xb7, 0x9d, 0x33, 0xee, 0xc3, 0xa2, 0xdd, 0x05, 0xa1, 0xa7, 0xe1, 0x59, 0xf4, 0x3e, 0x21, 0x4b, 0xe0, 0x43, 0xba, 0xeb, 0xb6, 0x4d, 0x21, 0xf6, 0xf9, 0xec, 0x3d, 0xdb, 0xd3, 0xfe, 0x7f, 0x56, 0xfa, 0xea, 0xb8, 0xba, 0xa7, 0x45, 0xc4, 0x62, 0x40, 0x20, 0x40, 0x1f, 0x1c, 0x4f, 0x3c, 0x3f, 0xae, 0x38, 0xfe, 0x04, 0xa8, 0x1c, 0x0d, 0x7e, 0x08, 0x5e, 0x4f, 0x08, 0x0c, 0xe1, 0x0b, 0xd5, 0x7f, 0x07, 0x18, 0x72, 0x42, 0xfb, 0x1b, 0x3b, 0x31, 0x1e, 0x10, 0x14, 0xe1, 0xa3, 0xca, 0xf8, 0x72, 0x51, 0xe5, 0x0b, 0x2c, 0xbe, 0xec, 0x3e, 0x21, 0xaa, 0x10, 0xf6, 0x33, 0xb6, 0xa5, 0xf4, 0x39, 0x2c, 0xc8, 0x06, 0x4f, 0x3f, 0xbf, 0xda, 0xf4, 0xb8, 0xcc, 0xfb, 0x36, 0x7f, 0x37, 0x01, 0xc0, 0x15, 0x1f, 0xc8, 0xe8, 0x16, 0xda, 0x31, 0x71, 0x0c, 0xee, 0xcd, 0x0c, 0x7a, 0x40, 0xc7, 0xc0, 0xb3, 0xd7, 0x01, 0x18, 0x47, 0x35, 0x35, 0x50, 0x17, 0x13, 0xe1, 0xec, 0xfe, 0x27, 0xfa, 0x9a, 0x44, 0x31, 0xf0, 0xad, 0x4c, 0xd4, 0x1d, 0x01, 0x60, 0x23, 0x2d, 0x6a, 0x18, 0xe5, 0x12, 0xcc, 0xdd, 0xd8, 0x26, 0x40, 0xeb, 0xf2, 0xe2, 0xb1, 0x04, 0x1b, 0x52, 0x7f, 0x08, 0x38, 0xd6, 0xef, 0x21, 0xee, 0x3c, 0xca, 0x62, 0x2c, 0xfd, 0x22, 0xea, 0xe3, 0x25, 0x1e, 0xd5, 0x36, 0xf9, 0x4f, 0x1a, 0xd9, 0xc9, 0x45, 0x0e, 0x2c, 0x51, 0xc4, 0x38, 0xe8, 0x56, 0x7d, 0xf1, 0xc7, 0xe0, 0x0d, 0x04, 0xc4, 0xd4, 0x10, 0x34, 0x07, 0x0f, 0xef, 0x4d, 0xc6, 0x7f, 0x2d, 0xeb, 0x94, 0x9c, 0xba, 0x6a, 0xd3, 0xac, 0x18, 0xcf, 0xca, 0xce, 0xe8, 0x48, 0x3a, 0x14, 0x58, 0x0c, 0xad, 0xbc, 0xc6, 0xcb, 0xed, 0x04, 0x0b, 0xd8, 0xcc, 0xe2, 0xdd, 0x28, 0xc7, 0x58, 0xe5, 0x97, 0x0d, 0x2d, 0x55, 0xe3, 0xe4, 0x07, 0x68, 0x51, 0x16, 0xb0, 0x21, 0x0e, 0x0a, 0x2a, 0x8d, 0xb1, 0x22, 0x99, 0x56, 0xda, 0x09, 0xee, 0x7f, 0x04, 0xc6, 0x10, 0x4a, 0x4a, 0xf4, 0x3c, 0x9e, 0xc3, 0xb0, 0xfb, 0x25, 0xc9, 0x4c, 0xcd, 0x4d, 0x95, 0xdd, 0x34, 0xb8, 0x40, 0x1c, 0x1b, 0x2d, 0x57, 0x24, 0x40, 0xb5, 0xa3, 0x25, 0xeb, 0x2c, 0x1b, 0x04, 0x7f, 0x28, 0x2a, 0x36, 0x41, 0x15, 0xe5, 0x23, 0x03, 0xcb, 0xa6, 0xb1, 0x18, 0x04, 0x33, 0xd9, 0x76, 0x13, 0xe3, 0x2a, 0x2a, 0x19, 0x3c, 0x4f, 0xf4, 0x00, 0x16, 0x20, 0xb3, 0x13, 0xf2, 0x03, 0xf7, 0x52, 0xbd, 0xf7, 0x40, 0x10, 0x44, 0x32, 0x14, 0x01, 0x04, 0x9f, 0xcb, 0x1b, 0x34, 0xf2, 0xd7, 0xc5, 0x42, 0x38, 0x55, 0x1e, 0x30, 0x45, 0xf5, 0x30, 0x41, 0xf5, 0xd3, 0xfc, 0x09, 0xce, 0xfb, 0xc9, 0x6d, 0x3d, 0xee, 0x76, 0xb2, 0xe3, 0xf8, 0xfb, 0x2c, 0x81, 0x22, 0xa5, 0xd4, 0x40, 0xf0, 0x14, 0x2c, 0x28, 0x46, 0xd2, 0x52, 0x7f, 0x12, 0x30, 0xbf, 0x3d, 0xbd, 0x05, 0x16, 0xf5, 0x23, 0x24, 0xd9, 0x2d, 0x59, 0xf8, 0x38, 0x44, 0x09, 0x3e, 0x08, 0x1c, 0xbf, 0x0e, 0xcf, 0xc2, 0x2f, 0x04, 0x2c, 0x45, 0x55, 0x1d, 0x1c, 0x5a, 0xcb, 0x3a, 0xc6, 0x20, 0xe8, 0x21, 0x00, 0x27, 0x0a, 0xea, 0x29, 0xc4, 0x5e, 0xfd, 0x7f, 0xa4, 0x19, 0xe4, 0xd5, 0x4b, 0x00, 0x52, 0xe4, 0xf2, 0xae, 0x1b, 0xfe, 0x15, 0x9d, 0x06, 0x20, 0x2a, 0xc9, 0x06, 0xbd, 0x7d, 0x3a, 0x1d, 0xe5, 0xf9, 0x95, 0x22, 0xf5, 0x37, 0x1a, 0xc3, 0x02, 0xb1, 0xcf, 0xf6, 0x1a, 0x0e, 0x59, 0xd8, 0xdc, 0x13, 0x8c, 0x35, 0xea, 0xe7, 0x17, 0x04, 0xb4, 0xb7, 0xf9, 0x50, 0xf7, 0x2f, 0x50, 0xfc, 0x31, 0x41, 0xd9, 0x25, 0x7f, 0x2f, 0x14, 0xff, 0x83, 0xc2, 0x6c, 0xfc, 0x51, 0x07, 0xfd, 0x2e, 0xe8, 0x52, 0xf7, 0xee, 0x45, 0xfe, 0xd6, 0xea, 0x8c, 0x18, 0x6c, 0x11, 0x37, 0xfb, 0xd0, 0xc2, 0xd0, 0xe7, 0xf8, 0xce, 0x0b, 0xe0, 0x50, 0x33, 0xcd, 0x44, 0xe9, 0x0e, 0xb0, 0xd9, 0x55, 0xd6, 0x51, 0x26, 0x03, 0x4e, 0x39, 0x5f, 0x56, 0x3e, 0xf5, 0xdf, 0x5d, 0xd0, 0xc3, 0x65, 0x72, 0x29, 0x03, 0xc7, 0x27, 0x22, 0x21, 0x1a, 0xdb, 0x06, 0xfa, 0x3e, 0x62, 0xe6, 0x02, 0x23, 0x6d, 0x11, 0x50, 0xf5, 0xba, 0xe1, 0x7f, 0x61, 0xa4, 0x71, 0x45, 0x16, 0x0b, 0xd6, 0x54, 0xb5, 0xd9, 0xac, 0x49, 0x29, 0x3b, 0xc9, 0x30, 0x39, 0x7d, 0x7f, 0x13, 0xc2, 0x1c, 0xe1, 0xca, 0x07, 0xa1, 0x01, 0xdf, 0xa9, 0xd6, 0xfa, 0x0a, 0xc3, 0x5c, 0xe0, 0xeb, 0xdc, 0xfa, 0x89, 0xce, 0x0f, 0x25, 0x14, 0x4d, 0xe0, 0xca, 0xb3, 0x5e, 0x3e, 0x7c, 0xec, 0x16, 0x44, 0x3c, 0xc1, 0x38, 0xd8, 0x81, 0xe9, 0x46, 0x7d, 0x5e, 0x5a, 0xcf, 0x2a, 0xfe, 0xc2, 0x4a, 0xf3, 0xf4, 0x93, 0x23, 0xc0, 0x3f, 0x9f, 0x45, 0xfd, 0x50, 0x5b, 0xe4, 0x45, 0x14, 0xf4, 0x39, 0xe6, 0x36, 0x05, 0x95, 0x2f, 0x43, 0xee, 0xcd, 0xf0, 0xe0, 0x6f, 0x11, 0x70, 0xcf, 0x14, 0x3f, 0xe8, 0x29, 0x0d, 0xfa, 0x3b, 0x01, 0xd2, 0xee, 0xc6, 0xe4, 0xd6, 0xc7, 0xdb, 0xe2, 0xb2, 0x6c, 0x00, 0x15, 0xf4, 0xeb, 0x3c, 0x01, 0xfa, 0xa4, 0x20, 0xea, 0xd2, 0xbf, 0x12, 0x1a, 0x16, 0x7f, 0xe0, 0x38, 0x26, 0xf3, 0x56, 0xf8, 0xe4, 0xb1, 0xdd, 0xf5, 0xb9, 0x01, 0xf0, 0x10, 0x5a, 0xd1, 0xf4, 0x13, 0xe0, 0xfd, 0x0d, 0x23, 0xb5, 0xd5, 0x71, 0xeb, 0x51, 0x65, 0x57, 0xd1, 0x63, 0xc1, 0xc4, 0x1b, 0x44, 0xed, 0xdf, 0x09, 0xac, 0x2a, 0x29, 0xee, 0x52, 0x06, 0xf6, 0x32, 0x01, 0x04, 0xfa, 0xf8, 0xd6, 0x42, 0x93, 0xda, 0xed, 0x37, 0x7f, 0xca, 0xec, 0x2f, 0x70, 0x0f, 0x3a, 0xb8, 0xb8, 0x47, 0x0b, 0x50, 0xb9, 0x2a, 0xd2, 0xbd, 0x4b, 0xbd, 0xf5, 0x7b, 0xef, 0x0b, 0x5d, 0xf1, 0xc5, 0x0c, 0x32, 0x49, 0xf6, 0xf0, 0xc1, 0xc0, 0x49, 0x0c, 0xea, 0x5b, 0x70, 0x36, 0x69, 0x0d, 0x26, 0x57, 0x47, 0x17, 0xba, 0x20, 0xf9, 0x3a, 0x63, 0x14, 0x0f, 0x12, 0x7f, 0x30, 0x76, 0xe1, 0x13, 0x42, 0x33, 0xf1, 0xfd, 0x19, 0xf4, 0x5e, 0xbe, 0x3a, 0x0d, 0x41, 0xe0, 0x13, 0x7a, 0xc4, 0xd2, 0x40, 0xe3, 0x0e, 0x2f, 0x28, 0xbd, 0x38, 0xe0, 0x4e, 0xf6, 0x59, 0xb9, 0x6d, 0x57, 0x3e, 0xda, 0xf6, 0xf0, 0x4d, 0xde, 0xc7, 0xc6, 0x1d, 0xfb, 0xc7, 0x03, 0x14, 0xf0, 0x7f, 0x17, 0x7f, 0x98, 0xd8, 0x0b, 0xd0, 0x29, 0x4d, 0x20, 0xef, 0x42, 0x9b, 0xb4, 0xad, 0xd2, 0xfd, 0x14, 0x77, 0xf4, 0x0d, 0xf2, 0x32, 0x09, 0x4d, 0x0d, 0x9e, 0x08, 0xb4, 0xad, 0xbc, 0xf6, 0xea, 0x1a, 0x2b, 0xbf, 0xd3, 0x13, 0xde, 0x75, 0x10, 0x4a, 0xa1, 0x5a, 0xc3, 0xb4, 0x11, 0xfa, 0xfa, 0xf6, 0xac, 0xf3, 0x49, 0x0f, 0x4a, 0xfe, 0xdc, 0xdb, 0xe2, 0x7a, 0xf9, 0xff, 0x5a, 0x2b, 0xd9, 0x52, 0xeb, 0xc7, 0xf6, 0x02, 0xe5, 0xde, 0x44, 0xe4, 0x0e, 0x7f, 0xe7, 0xfe, 0x51, 0x24, 0xd0, 0x12, 0xe5, 0xe7, 0x21, 0xe0, 0x38, 0x22, 0x17, 0xfd, 0x15, 0x26, 0xe4, 0x42, 0x73, 0x3e, 0xf0, 0x2d, 0xe6, 0xf8, 0xe3, 0x7f, 0x72, 0x4f, 0x66, 0x57, 0x2e, 0xc9, 0xd6, 0xfa, 0x25, 0xac, 0x3b, 0x19, 0xa7, 0xd8, 0xd2, 0x7e, 0x40, 0xdd, 0x55, 0xf5, 0x1a, 0xed, 0xdb, 0xe5, 0xde, 0xc5, 0xd3, 0xd8, 0xf8, 0xce, 0x0f, 0x2e, 0x47, 0xe3, 0x34, 0x65, 0x3b, 0x09, 0x11, 0xe1, 0xef, 0x40, 0x28, 0xfb, 0x15, 0xe7, 0x30, 0xff, 0xed, 0xfd, 0xb5, 0x2b, 0x37, 0x6b, 0x97, 0x55, 0x21, 0x01, 0x25, 0xf8, 0xb2, 0xd6, 0xc6, 0xbc, 0xff, 0xb5, 0x7f, 0xc7, 0x42, 0xda, 0x9e, 0x44, 0xf9, 0x43, 0x40, 0xe2, 0xa8, 0xbe, 0x51, 0xe7, 0x39, 0xe3, 0x23, 0x6c, 0x13, 0xf0, 0xa7, 0x47, 0x5a, 0x6a, 0xaa, 0xb2, 0xf8, 0xff, 0xff, 0x04, 0x00, 0x00, 0x00, 0x80, 0x00, 0x00, 0x00, 0x95, 0x08, 0x00, 0x00, 0xed, 0x02, 0x00, 0x00, 0xe7, 0x05, 0x00, 0x00, 0x46, 0xff, 0xff, 0xff, 0x90, 0x00, 0x00, 0x00, 0x67, 0xfa, 0xff, 0xff, 0x29, 0x05, 0x00, 0x00, 0xb4, 0x05, 0x00, 0x00, 0x72, 0x04, 0x00, 0x00, 0x65, 0x05, 0x00, 0x00, 0x1d, 0xfc, 0xff, 0xff, 0xb4, 0x03, 0x00, 0x00, 0xca, 0xfe, 0xff, 0xff, 0x93, 0xff, 0xff, 0xff, 0xb5, 0x0b, 0x00, 0x00, 0xa4, 0xfd, 0xff, 0xff, 0x59, 0xff, 0xff, 0xff, 0xbc, 0xfd, 0xff, 0xff, 0x75, 0x06, 0x00, 0x00, 0xef, 0xff, 0xff, 0xff, 0xac, 0xfc, 0xff, 0xff, 0x1c, 0xfe, 0xff, 0xff, 0x6d, 0xff, 0xff, 0xff, 0x18, 0xff, 0xff, 0xff, 0x5d, 0x01, 0x00, 0x00, 0xd9, 0xfc, 0xff, 0xff, 0xb9, 0xf9, 0xff, 0xff, 0x61, 0xfe, 0xff, 0xff, 0x4f, 0xf9, 0xff, 0xff, 0x57, 0xfb, 0xff, 0xff, 0xc4, 0x05, 0x00, 0x00, 0x64, 0xfb, 0xff, 0xff, 0x3e, 0xf9, 0xff, 0xff, 0x04, 0x00, 0x00, 0x00, 0x00, 0x04, 0x00, 0x00, 0xf4, 0x7e, 0xbc, 0x64, 0x54, 0x8b, 0xc9, 0x50, 0xd1, 0xc6, 0x0a, 0xd7, 0xb2, 0x9d, 0x10, 0x4e, 0x29, 0x9c, 0x35, 0x7f, 0x31, 0xf0, 0xd2, 0xe2, 0x26, 0x23, 0xf3, 0x9b, 0x5d, 0x49, 0x3e, 0x14, 0xe0, 0x43, 0x79, 0x36, 0x00, 0xf1, 0xa3, 0x58, 0x0f, 0x75, 0x30, 0xe1, 0x2b, 0xd6, 0xed, 0x40, 0x12, 0xad, 0xd6, 0x48, 0x11, 0x56, 0x9c, 0x59, 0x21, 0x03, 0xd0, 0x08, 0x7f, 0xc1, 0xd1, 0xac, 0x5d, 0x83, 0x4a, 0xd7, 0xce, 0x1b, 0xca, 0x45, 0x4a, 0x7f, 0x15, 0x64, 0x9b, 0xe6, 0x9d, 0x74, 0x73, 0x87, 0x02, 0xd8, 0x2a, 0x6c, 0xd4, 0x3d, 0x18, 0x9b, 0x13, 0x38, 0x92, 0x3f, 0x2a, 0x38, 0xe6, 0x7d, 0xc6, 0x44, 0xd5, 0xe5, 0xd0, 0xc1, 0xa6, 0x58, 0xa7, 0x27, 0x10, 0xb6, 0x07, 0x1a, 0xc5, 0x47, 0x11, 0xaa, 0xa7, 0x13, 0xfc, 0xf2, 0x25, 0x95, 0x5d, 0x58, 0x12, 0xcb, 0x7f, 0xa6, 0xce, 0x2a, 0xe0, 0x15, 0x0c, 0x44, 0x49, 0x28, 0x9b, 0xdc, 0xb3, 0x74, 0xdd, 0x04, 0x7f, 0x6b, 0x9b, 0x09, 0xe0, 0x35, 0x42, 0xfd, 0x0d, 0x1a, 0xa8, 0x2c, 0x30, 0xbb, 0xac, 0x1a, 0x6a, 0xcb, 0x03, 0xae, 0x7f, 0x0d, 0x24, 0x5d, 0xe9, 0xd0, 0xa9, 0x42, 0x7b, 0xd6, 0x3d, 0x2f, 0xfe, 0x3e, 0x68, 0xb6, 0xf6, 0x1a, 0x19, 0xcd, 0x55, 0xd8, 0xe2, 0xfa, 0xd3, 0x14, 0x4b, 0xd5, 0xba, 0x32, 0x90, 0x69, 0xad, 0x39, 0xef, 0x1c, 0x81, 0x54, 0x01, 0x92, 0x04, 0x15, 0xb0, 0xd2, 0xb1, 0x10, 0xf1, 0x15, 0xcc, 0xce, 0xf8, 0x4e, 0x1e, 0x13, 0x81, 0x54, 0x38, 0x59, 0xdc, 0x71, 0x38, 0x42, 0x86, 0x6c, 0xe8, 0x00, 0xd9, 0x5b, 0xf1, 0x43, 0x53, 0x81, 0x44, 0x3e, 0xec, 0xfb, 0xf5, 0x0d, 0x67, 0xed, 0xe3, 0x23, 0x11, 0xbb, 0x51, 0xbe, 0xa7, 0xe2, 0xff, 0x3c, 0x17, 0x7d, 0xcc, 0xfc, 0xad, 0xc6, 0xbd, 0xbf, 0xf9, 0x7a, 0x76, 0x1b, 0xd1, 0xa3, 0x16, 0x17, 0x51, 0x3c, 0xd5, 0x42, 0xf1, 0x2a, 0x43, 0xbc, 0x3e, 0x57, 0xb5, 0x6c, 0xa4, 0xf8, 0x7f, 0x6a, 0xe5, 0x55, 0x04, 0xd9, 0x76, 0xb3, 0x9b, 0x4a, 0x09, 0x89, 0x36, 0x11, 0x00, 0x49, 0x8f, 0x23, 0xea, 0x49, 0x00, 0x9c, 0x1a, 0x41, 0xac, 0x95, 0x3f, 0xe1, 0xbe, 0x98, 0x0f, 0x2f, 0xe2, 0x8f, 0xc4, 0x7f, 0xfb, 0xf2, 0x67, 0xd5, 0x43, 0x1a, 0xd4, 0xd1, 0xc0, 0x5b, 0x50, 0x4b, 0x19, 0x41, 0xba, 0x38, 0x1c, 0xe2, 0xc6, 0x12, 0xde, 0x35, 0xc3, 0x3b, 0xc7, 0xd2, 0x14, 0x0f, 0xca, 0x50, 0xca, 0xb5, 0x7f, 0xf8, 0xfe, 0x3d, 0xa3, 0xd0, 0xdc, 0x05, 0x60, 0x05, 0x92, 0x95, 0x5b, 0x07, 0x14, 0xb2, 0x30, 0x18, 0x26, 0x16, 0x4e, 0x27, 0xc5, 0x19, 0x6b, 0xc9, 0xc7, 0x47, 0x39, 0x17, 0xfa, 0x08, 0x81, 0xe7, 0x53, 0xa3, 0x20, 0xff, 0xd0, 0xfd, 0x3d, 0x41, 0x27, 0x7f, 0xd6, 0x50, 0xda, 0x37, 0x0d, 0x46, 0x54, 0xee, 0x5f, 0xdd, 0xab, 0x0c, 0x0d, 0xe5, 0xe2, 0xa3, 0xa8, 0x39, 0xc8, 0x99, 0x7a, 0xbf, 0x44, 0x9e, 0x72, 0xb8, 0x3f, 0x52, 0x3e, 0xbd, 0xa6, 0x4d, 0x7f, 0xc1, 0xf8, 0x10, 0x9e, 0xc3, 0xd8, 0x59, 0x55, 0x17, 0xc1, 0x1d, 0xcf, 0x2f, 0x59, 0xd3, 0x58, 0x5f, 0x29, 0x30, 0x87, 0xda, 0xee, 0x25, 0x13, 0xf3, 0x54, 0xfa, 0x54, 0x7f, 0xc6, 0xb0, 0xb4, 0xee, 0xdd, 0x15, 0x93, 0x20, 0x33, 0xb7, 0xb2, 0x41, 0x48, 0xd8, 0x35, 0xd9, 0x03, 0x35, 0xfc, 0xc2, 0x4d, 0x65, 0x40, 0x4d, 0xc1, 0xf2, 0x9c, 0x10, 0xe0, 0x4e, 0x46, 0x45, 0x8d, 0x81, 0x2e, 0x46, 0x6c, 0xa6, 0xe9, 0x46, 0x2f, 0xa8, 0x07, 0xcc, 0xad, 0xd7, 0xb4, 0x03, 0xb7, 0x5d, 0xda, 0xe1, 0xa1, 0xe4, 0x44, 0x55, 0x6d, 0x83, 0x9c, 0x24, 0xfa, 0x33, 0x57, 0xf0, 0x9d, 0xe2, 0x98, 0xf3, 0x6c, 0x2e, 0x98, 0x31, 0x81, 0xfb, 0x1b, 0x22, 0x2d, 0x96, 0x57, 0xe2, 0xba, 0x23, 0x3c, 0x84, 0xee, 0xd3, 0xb5, 0x49, 0x0a, 0x6f, 0x00, 0x69, 0xb2, 0x43, 0x96, 0x90, 0x2e, 0xfa, 0x48, 0x81, 0x58, 0x2a, 0xc7, 0x62, 0x91, 0x54, 0x92, 0xa3, 0xb6, 0x06, 0xcb, 0x85, 0xf2, 0xc5, 0x0c, 0xd5, 0xb1, 0x09, 0x18, 0xfd, 0x4e, 0xfb, 0xf5, 0xe4, 0xbe, 0x55, 0xce, 0xa6, 0x60, 0xdd, 0x3e, 0xca, 0x06, 0x36, 0x2a, 0xe9, 0x5f, 0xb7, 0x2b, 0xd4, 0x14, 0x11, 0x33, 0x2c, 0x3f, 0xc5, 0xcb, 0x7f, 0x40, 0xa3, 0xb5, 0xf0, 0x50, 0x43, 0x1d, 0xdd, 0xca, 0xfa, 0xdb, 0x3e, 0xc7, 0x0a, 0xf7, 0x28, 0x2d, 0xea, 0x94, 0x46, 0x52, 0x1c, 0x53, 0x4a, 0x99, 0x46, 0xc1, 0x64, 0x36, 0x02, 0xcc, 0xbb, 0x7f, 0x96, 0xb1, 0xe5, 0x33, 0x6e, 0xf8, 0x3a, 0xfc, 0x12, 0xbe, 0x6c, 0x47, 0xfb, 0x25, 0xe5, 0x12, 0xb9, 0x81, 0xe1, 0xdd, 0xd7, 0x15, 0xee, 0xca, 0xd8, 0x00, 0x13, 0x44, 0x1f, 0x1c, 0xdc, 0x11, 0x29, 0x00, 0x1c, 0x64, 0x2e, 0x2b, 0x91, 0x5f, 0x39, 0x17, 0x2b, 0xa4, 0x7f, 0x08, 0x24, 0x29, 0x5b, 0xf1, 0xe2, 0x4d, 0x4e, 0x1e, 0x07, 0x8a, 0xac, 0x69, 0x01, 0x78, 0xce, 0xf4, 0x06, 0x1f, 0xaf, 0xbf, 0x97, 0xd2, 0x8b, 0x19, 0x13, 0xeb, 0xee, 0x38, 0x3b, 0x49, 0x45, 0xc8, 0xf3, 0xb4, 0xc1, 0x7d, 0x55, 0x54, 0x7f, 0x0d, 0xb7, 0x44, 0x14, 0x2c, 0xf3, 0xfc, 0x10, 0x4f, 0x53, 0x10, 0x3e, 0x2b, 0xc6, 0x7e, 0xf5, 0x55, 0x69, 0xe6, 0x9f, 0x64, 0x03, 0xcc, 0x7f, 0xf1, 0x76, 0xf9, 0xbd, 0x6e, 0x38, 0x2a, 0xb3, 0x5d, 0xf1, 0x60, 0xcb, 0x2d, 0xd7, 0x42, 0xef, 0xd7, 0xb8, 0xbc, 0x94, 0x6e, 0xc2, 0x55, 0xcc, 0x89, 0x08, 0x54, 0x7f, 0x0b, 0x14, 0xc5, 0x3e, 0x3b, 0x93, 0x2f, 0x1f, 0x20, 0xca, 0x68, 0x19, 0x40, 0xfc, 0xef, 0x04, 0xb0, 0x66, 0x01, 0x66, 0x25, 0xcf, 0x16, 0x0a, 0x91, 0x95, 0x13, 0xf4, 0xf7, 0x68, 0xac, 0xf6, 0xe6, 0xda, 0xb4, 0xeb, 0x04, 0x19, 0xdc, 0x1d, 0x30, 0x64, 0x44, 0xd5, 0xbc, 0x00, 0x7f, 0xd5, 0xfd, 0x4c, 0x85, 0xab, 0x50, 0xde, 0x4d, 0x74, 0x67, 0x52, 0xde, 0x86, 0xf8, 0xca, 0x32, 0x6f, 0xd9, 0x13, 0xf2, 0x42, 0x2e, 0x82, 0x2c, 0x83, 0xaf, 0xf7, 0x81, 0x42, 0x66, 0xac, 0x15, 0xe5, 0x9f, 0xa7, 0x4f, 0xe4, 0x99, 0x04, 0xb1, 0xce, 0xbd, 0xa4, 0xc6, 0xe9, 0xb6, 0x52, 0x04, 0xe5, 0x61, 0x0e, 0xd4, 0x12, 0x22, 0xc5, 0xb2, 0x4c, 0x7f, 0xe4, 0xcc, 0x3a, 0xeb, 0xa1, 0x25, 0x1b, 0x3d, 0xac, 0x18, 0x64, 0x68, 0x76, 0xb4, 0x44, 0x32, 0x38, 0x13, 0xbf, 0x24, 0x3a, 0x0a, 0x1b, 0x41, 0x00, 0xfa, 0x3f, 0xbf, 0x0d, 0x4d, 0x44, 0x7f, 0x44, 0x15, 0x13, 0x55, 0xe9, 0x33, 0xe1, 0x32, 0xf4, 0xce, 0xe4, 0x06, 0x2a, 0xd6, 0x08, 0xd7, 0xe9, 0x90, 0x26, 0x42, 0x0f, 0x91, 0xb3, 0x45, 0xe1, 0x28, 0x81, 0x51, 0xb1, 0x90, 0x4d, 0x67, 0x3c, 0x2b, 0x8f, 0x01, 0x90, 0xb5, 0xca, 0xd0, 0x71, 0xda, 0xaa, 0xa7, 0x07, 0xb2, 0x94, 0x1c, 0x24, 0x2f, 0x2c, 0xb6, 0xef, 0x4c, 0xa5, 0x0a, 0x7f, 0x61, 0xb6, 0x03, 0x69, 0xad, 0x4c, 0xbe, 0x0c, 0xa3, 0x00, 0xc7, 0xe1, 0xdd, 0x4a, 0xee, 0xba, 0xb2, 0x52, 0xe6, 0xd7, 0xff, 0xeb, 0x7c, 0xf5, 0xeb, 0xbb, 0x2f, 0xd8, 0xce, 0xfa, 0x97, 0x25, 0x91, 0x02, 0x71, 0xb9, 0x14, 0x06, 0xb0, 0x08, 0x1b, 0xc5, 0xcf, 0x81, 0x69, 0xf9, 0xcb, 0xa3, 0x54, 0x8e, 0x4c, 0xa5, 0xf5, 0x70, 0xa0, 0x14, 0x4a, 0xfd, 0xff, 0xff, 0x04, 0x00, 0x00, 0x00, 0x80, 0x00, 0x00, 0x00, 0x2b, 0x05, 0x00, 0x00, 0xa5, 0x03, 0x00, 0x00, 0x45, 0xfc, 0xff, 0xff, 0x78, 0x04, 0x00, 0x00, 0xac, 0xfe, 0xff, 0xff, 0x6e, 0xfe, 0xff, 0xff, 0xe2, 0xfb, 0xff, 0xff, 0x5c, 0xfb, 0xff, 0xff, 0xf8, 0xfd, 0xff, 0xff, 0xcf, 0xff, 0xff, 0xff, 0xed, 0x0a, 0x00, 0x00, 0x9c, 0xfd, 0xff, 0xff, 0x6f, 0x06, 0x00, 0x00, 0x73, 0x01, 0x00, 0x00, 0x52, 0xff, 0xff, 0xff, 0xc6, 0xfe, 0xff, 0xff, 0xf4, 0xfe, 0xff, 0xff, 0x05, 0xff, 0xff, 0xff, 0x06, 0x02, 0x00, 0x00, 0x20, 0x04, 0x00, 0x00, 0x2e, 0x01, 0x00, 0x00, 0xfe, 0x01, 0x00, 0x00, 0xd6, 0xfd, 0xff, 0xff, 0xfd, 0x09, 0x00, 0x00, 0xd3, 0xfa, 0xff, 0xff, 0x2e, 0xfe, 0xff, 0xff, 0x12, 0xff, 0xff, 0xff, 0x3e, 0xfd, 0xff, 0xff, 0x36, 0xfe, 0xff, 0xff, 0x00, 0x00, 0x00, 0x00, 0x7d, 0x04, 0x00, 0x00, 0xaa, 0xfe, 0xff, 0xff, 0xd6, 0xfd, 0xff, 0xff, 0x04, 0x00, 0x00, 0x00, 0xa0, 0x00, 0x00, 0x00, 0xca, 0x95, 0xab, 0x25, 0xcb, 0x0b, 0xd6, 0x2d, 0x41, 0x45, 0xdf, 0x5f, 0x9c, 0x42, 0x22, 0xa4, 0xe7, 0x1e, 0xfb, 0xe4, 0xa9, 0x5c, 0x61, 0x81, 0x5b, 0xcf, 0x56, 0x60, 0x42, 0xb2, 0xab, 0xf0, 0x54, 0x1a, 0x16, 0xf8, 0x37, 0xa1, 0x4b, 0x40, 0x01, 0x0d, 0x25, 0xb6, 0x90, 0xaf, 0x41, 0xce, 0xbc, 0xdb, 0xb4, 0xdf, 0x17, 0xbe, 0xf8, 0x81, 0xd6, 0x53, 0x39, 0x42, 0x17, 0x15, 0x2b, 0x4b, 0xf4, 0xc8, 0x0c, 0x31, 0x2a, 0xfb, 0xbf, 0x04, 0xef, 0x11, 0x5d, 0xda, 0x49, 0xf4, 0xcb, 0xb4, 0x51, 0xf2, 0x36, 0xb6, 0x81, 0x22, 0x21, 0x41, 0xf4, 0x05, 0xf9, 0x51, 0x5a, 0xea, 0x08, 0xc2, 0x1d, 0x44, 0x4f, 0xa6, 0xab, 0x54, 0xd0, 0x12, 0xbf, 0xf0, 0x3c, 0xd8, 0x21, 0x38, 0xcf, 0x36, 0x1a, 0xca, 0x7f, 0x66, 0x0b, 0x5b, 0xd6, 0x02, 0x08, 0x95, 0xf3, 0x9a, 0x49, 0x5f, 0xb0, 0x5e, 0x63, 0x38, 0xd3, 0x37, 0xb3, 0x98, 0xa7, 0xf5, 0x81, 0xcf, 0x52, 0x0b, 0x13, 0x00, 0x3b, 0x26, 0x31, 0x0e, 0xbd, 0x56, 0x26, 0x2d, 0x15, 0x3c, 0xcd, 0xef, 0xc5, 0x95, 0x0e, 0xdd, 0x2b, 0x10, 0x82, 0xfe, 0xff, 0xff, 0x04, 0x00, 0x00, 0x00, 0x14, 0x00, 0x00, 0x00, 0xf7, 0xfc, 0xff, 0xff, 0xd2, 0xfd, 0xff, 0xff, 0x44, 0x02, 0x00, 0x00, 0x43, 0xff, 0xff, 0xff, 0x69, 0x02, 0x00, 0x00, 0xa2, 0xfe, 0xff, 0xff, 0x04, 0x00, 0x00, 0x00, 0x0c, 0x00, 0x00, 0x00, 0xff, 0xff, 0xff, 0xff, 0x25, 0x00, 0x00, 0x00, 0x20, 0x00, 0x00, 0x00, 0xba, 0xfe, 0xff, 0xff, 0x04, 0x00, 0x00, 0x00, 0x0c, 0x00, 0x00, 0x00, 0xff, 0xff, 0xff, 0xff, 0x4b, 0x00, 0x00, 0x00, 0x20, 0x00, 0x00, 0x00, 0xd2, 0xfe, 0xff, 0xff, 0x04, 0x00, 0x00, 0x00, 0x0c, 0x00, 0x00, 0x00, 0xff, 0xff, 0xff, 0xff, 0x4b, 0x00, 0x00, 0x00, 0x10, 0x00, 0x00, 0x00, 0xea, 0xfe, 0xff, 0xff, 0x04, 0x00, 0x00, 0x00, 0x04, 0x00, 0x00, 0x00, 0x01, 0x00, 0x00, 0x00, 0xfa, 0xfe, 0xff, 0xff, 0x04, 0x00, 0x00, 0x00, 0x0c, 0x00, 0x00, 0x00, 0xff, 0xff, 0xff, 0xff, 0x96, 0x00, 0x00, 0x00, 0x10, 0x00, 0x00, 0x00, 0x12, 0xff, 0xff, 0xff, 0x04, 0x00, 0x00, 0x00, 0x04, 0x00, 0x00, 0x00, 0xfd, 0xff, 0xff, 0xff, 0x34, 0xe2, 0xff, 0xff, 0x38, 0xe2, 0xff, 0xff, 0x0f, 0x00, 0x00, 0x00, 0x4d, 0x4c, 0x49, 0x52, 0x20, 0x43, 0x6f, 0x6e, 0x76, 0x65, 0x72, 0x74, 0x65, 0x64, 0x2e, 0x00, 0x01, 0x00, 0x00, 0x00, 0x14, 0x00, 0x00, 0x00, 0x00, 0x00, 0x0e, 0x00, 0x18, 0x00, 0x14, 0x00, 0x10, 0x00, 0x0c, 0x00, 0x08, 0x00, 0x04, 0x00, 0x0e, 0x00, 0x00, 0x00, 0x14, 0x00, 0x00, 0x00, 0x1c, 0x00, 0x00, 0x00, 0x10, 0x04, 0x00, 0x00, 0x14, 0x04, 0x00, 0x00, 0x18, 0x04, 0x00, 0x00, 0x04, 0x00, 0x00, 0x00, 0x6d, 0x61, 0x69, 0x6e, 0x00, 0x00, 0x00, 0x00, 0x12, 0x00, 0x00, 0x00, 0xd8, 0x03, 0x00, 0x00, 0x98, 0x03, 0x00, 0x00, 0x38, 0x03, 0x00, 0x00, 0x10, 0x03, 0x00, 0x00, 0xd0, 0x02, 0x00, 0x00, 0x7c, 0x02, 0x00, 0x00, 0x54, 0x02, 0x00, 0x00, 0x20, 0x02, 0x00, 0x00, 0xdc, 0x01, 0x00, 0x00, 0xb4, 0x01, 0x00, 0x00, 0x80, 0x01, 0x00, 0x00, 0x3c, 0x01, 0x00, 0x00, 0x14, 0x01, 0x00, 0x00, 0xe0, 0x00, 0x00, 0x00, 0x9c, 0x00, 0x00, 0x00, 0x64, 0x00, 0x00, 0x00, 0x28, 0x00, 0x00, 0x00, 0x04, 0x00, 0x00, 0x00, 0x36, 0xfd, 0xff, 0xff, 0x0c, 0x00, 0x00, 0x00, 0x10, 0x00, 0x00, 0x00, 0x08, 0x00, 0x00, 0x00, 0x01, 0x00, 0x00, 0x00, 0x20, 0x00, 0x00, 0x00, 0x01, 0x00, 0x00, 0x00, 0x1f, 0x00, 0x00, 0x00, 0xda, 0xfc, 0xff, 0xff, 0x1c, 0x00, 0x00, 0x00, 0x00, 0x00, 0x00, 0x09, 0x1c, 0x00, 0x00, 0x00, 0x20, 0x00, 0x00, 0x00, 0x07, 0x00, 0x00, 0x00, 0x00, 0x00, 0x06, 0x00, 0x08, 0x00, 0x04, 0x00, 0x06, 0x00, 0x00, 0x00, 0x00, 0x00, 0x80, 0x3f, 0x01, 0x00, 0x00, 0x00, 0x1f, 0x00, 0x00, 0x00, 0x01, 0x00, 0x00, 0x00, 0x1e, 0x00, 0x00, 0x00, 0x12, 0xfd, 0xff, 0xff, 0x14, 0x00, 0x00, 0x00, 0x00, 0x00, 0x00, 0x08, 0x10, 0x00, 0x00, 0x00, 0x14, 0x00, 0x00, 0x00, 0x06, 0x00, 0x00, 0x00, 0x48, 0xe3, 0xff, 0xff, 0x01, 0x00, 0x00, 0x00, 0x1e, 0x00, 0x00, 0x00, 0x03, 0x00, 0x00, 0x00, 0x1d, 0x00, 0x00, 0x00, 0x08, 0x00, 0x00, 0x00, 0x07, 0x00, 0x00, 0x00, 0x46, 0xfd, 0xff, 0xff, 0x1c, 0x00, 0x00, 0x00, 0x00, 0x00, 0x00, 0x08, 0x1c, 0x00, 0x00, 0x00, 0x20, 0x00, 0x00, 0x00, 0x06, 0x00, 0x00, 0x00, 0x00, 0x00, 0x06, 0x00, 0x08, 0x00, 0x07, 0x00, 0x06, 0x00, 0x00, 0x00, 0x00, 0x00, 0x00, 0x01, 0x01, 0x00, 0x00, 0x00, 0x1d, 0x00, 0x00, 0x00, 0x03, 0x00, 0x00, 0x00, 0x1c, 0x00, 0x00, 0x00, 0x0a, 0x00, 0x00, 0x00, 0x09, 0x00, 0x00, 0x00, 0x86, 0xfd, 0xff, 0xff, 0x14, 0x00, 0x00, 0x00, 0x00, 0x00, 0x00, 0x1b, 0x10, 0x00, 0x00, 0x00, 0x14, 0x00, 0x00, 0x00, 0x05, 0x00, 0x00, 0x00, 0xbc, 0xe3, 0xff, 0xff, 0x01, 0x00, 0x00, 0x00, 0x1c, 0x00, 0x00, 0x00, 0x02, 0x00, 0x00, 0x00, 0x1b, 0x00, 0x00, 0x00, 0x03, 0x00, 0x00, 0x00, 0x32, 0xfe, 0xff, 0xff, 0x0c, 0x00, 0x00, 0x00, 0x10, 0x00, 0x00, 0x00, 0x03, 0x00, 0x00, 0x00, 0x01, 0x00, 0x00, 0x00, 0x1b, 0x00, 0x00, 0x00, 0x02, 0x00, 0x00, 0x00, 0x1a, 0x00, 0x00, 0x00, 0x06, 0x00, 0x00, 0x00, 0xda, 0xfd, 0xff, 0xff, 0x14, 0x00, 0x00, 0x00, 0x00, 0x00, 0x00, 0x05, 0x24, 0x00, 0x00, 0x00, 0x28, 0x00, 0x00, 0x00, 0x04, 0x00, 0x00, 0x00, 0xd6, 0xfe, 0xff, 0xff, 0x01, 0x00, 0x00, 0x00, 0x02, 0x00, 0x00, 0x00, 0x01, 0x00, 0x00, 0x00, 0x02, 0x00, 0x00, 0x00, 0x00, 0x00, 0x00, 0x01, 0x01, 0x00, 0x00, 0x00, 0x1a, 0x00, 0x00, 0x00, 0x01, 0x00, 0x00, 0x00, 0x19, 0x00, 0x00, 0x00, 0x1a, 0xfe, 0xff, 0xff, 0x14, 0x00, 0x00, 0x00, 0x00, 0x00, 0x00, 0x34, 0x10, 0x00, 0x00, 0x00, 0x14, 0x00, 0x00, 0x00, 0x01, 0x00, 0x00, 0x00, 0x50, 0xe4, 0xff, 0xff, 0x01, 0x00, 0x00, 0x00, 0x19, 0x00, 0x00, 0x00, 0x02, 0x00, 0x00, 0x00, 0x18, 0x00, 0x00, 0x00, 0x03, 0x00, 0x00, 0x00, 0xc6, 0xfe, 0xff, 0xff, 0x0c, 0x00, 0x00, 0x00, 0x10, 0x00, 0x00, 0x00, 0x03, 0x00, 0x00, 0x00, 0x01, 0x00, 0x00, 0x00, 0x18, 0x00, 0x00, 0x00, 0x02, 0x00, 0x00, 0x00, 0x17, 0x00, 0x00, 0x00, 0x05, 0x00, 0x00, 0x00, 0x6e, 0xfe, 0xff, 0xff, 0x14, 0x00, 0x00, 0x00, 0x00, 0x00, 0x00, 0x01, 0x1c, 0x00, 0x00, 0x00, 0x20, 0x00, 0x00, 0x00, 0x02, 0x00, 0x00, 0x00, 0xbc, 0xfe, 0xff, 0xff, 0x00, 0x00, 0x00, 0x01, 0x01, 0x00, 0x00, 0x00, 0x01, 0x00, 0x00, 0x00, 0x01, 0x00, 0x00, 0x00, 0x17, 0x00, 0x00, 0x00, 0x03, 0x00, 0x00, 0x00, 0x16, 0x00, 0x00, 0x00, 0x0c, 0x00, 0x00, 0x00, 0x0b, 0x00, 0x00, 0x00, 0xae, 0xfe, 0xff, 0xff, 0x14, 0x00, 0x00, 0x00, 0x00, 0x00, 0x00, 0x34, 0x10, 0x00, 0x00, 0x00, 0x14, 0x00, 0x00, 0x00, 0x01, 0x00, 0x00, 0x00, 0xe4, 0xe4, 0xff, 0xff, 0x01, 0x00, 0x00, 0x00, 0x16, 0x00, 0x00, 0x00, 0x02, 0x00, 0x00, 0x00, 0x15, 0x00, 0x00, 0x00, 0x01, 0x00, 0x00, 0x00, 0x5a, 0xff, 0xff, 0xff, 0x0c, 0x00, 0x00, 0x00, 0x10, 0x00, 0x00, 0x00, 0x03, 0x00, 0x00, 0x00, 0x01, 0x00, 0x00, 0x00, 0x15, 0x00, 0x00, 0x00, 0x02, 0x00, 0x00, 0x00, 0x14, 0x00, 0x00, 0x00, 0x04, 0x00, 0x00, 0x00, 0x02, 0xff, 0xff, 0xff, 0x24, 0x00, 0x00, 0x00, 0x00, 0x00, 0x00, 0x05, 0x34, 0x00, 0x00, 0x00, 0x38, 0x00, 0x00, 0x00, 0x04, 0x00, 0x00, 0x00, 0x00, 0x00, 0x0e, 0x00, 0x18, 0x00, 0x17, 0x00, 0x10, 0x00, 0x0c, 0x00, 0x08, 0x00, 0x04, 0x00, 0x0e, 0x00, 0x00, 0x00, 0x01, 0x00, 0x00, 0x00, 0x02, 0x00, 0x00, 0x00, 0x01, 0x00, 0x00, 0x00, 0x02, 0x00, 0x00, 0x00, 0x00, 0x00, 0x00, 0x01, 0x01, 0x00, 0x00, 0x00, 0x14, 0x00, 0x00, 0x00, 0x01, 0x00, 0x00, 0x00, 0x13, 0x00, 0x00, 0x00, 0x52, 0xff, 0xff, 0xff, 0x14, 0x00, 0x00, 0x00, 0x00, 0x00, 0x00, 0x34, 0x10, 0x00, 0x00, 0x00, 0x14, 0x00, 0x00, 0x00, 0x01, 0x00, 0x00, 0x00, 0x88, 0xe5, 0xff, 0xff, 0x01, 0x00, 0x00, 0x00, 0x13, 0x00, 0x00, 0x00, 0x02, 0x00, 0x00, 0x00, 0x12, 0x00, 0x00, 0x00, 0x03, 0x00, 0x00, 0x00, 0x00, 0x00, 0x0a, 0x00, 0x10, 0x00, 0x0c, 0x00, 0x08, 0x00, 0x04, 0x00, 0x0a, 0x00, 0x00, 0x00, 0x0c, 0x00, 0x00, 0x00, 0x10, 0x00, 0x00, 0x00, 0x03, 0x00, 0x00, 0x00, 0x01, 0x00, 0x00, 0x00, 0x12, 0x00, 0x00, 0x00, 0x02, 0x00, 0x00, 0x00, 0x11, 0x00, 0x00, 0x00, 0x02, 0x00, 0x00, 0x00, 0xb2, 0xff, 0xff, 0xff, 0x20, 0x00, 0x00, 0x00, 0x00, 0x00, 0x00, 0x01, 0x28, 0x00, 0x00, 0x00, 0x2c, 0x00, 0x00, 0x00, 0x02, 0x00, 0x00, 0x00, 0x0c, 0x00, 0x10, 0x00, 0x00, 0x00, 0x0c, 0x00, 0x08, 0x00, 0x07, 0x00, 0x0c, 0x00, 0x00, 0x00, 0x00, 0x00, 0x00, 0x01, 0x01, 0x00, 0x00, 0x00, 0x01, 0x00, 0x00, 0x00, 0x01, 0x00, 0x00, 0x00, 0x11, 0x00, 0x00, 0x00, 0x03, 0x00, 0x00, 0x00, 0x10, 0x00, 0x00, 0x00, 0x0e, 0x00, 0x00, 0x00, 0x0d, 0x00, 0x00, 0x00, 0x00, 0x00, 0x0e, 0x00, 0x18, 0x00, 0x14, 0x00, 0x10, 0x00, 0x0c, 0x00, 0x0b, 0x00, 0x04, 0x00, 0x0e, 0x00, 0x00, 0x00, 0x14, 0x00, 0x00, 0x00, 0x00, 0x00, 0x00, 0x34, 0x10, 0x00, 0x00, 0x00, 0x14, 0x00, 0x00, 0x00, 0x01, 0x00, 0x00, 0x00, 0x44, 0xe6, 0xff, 0xff, 0x01, 0x00, 0x00, 0x00, 0x10, 0x00, 0x00, 0x00, 0x02, 0x00, 0x00, 0x00, 0x0f, 0x00, 0x00, 0x00, 0x01, 0x00, 0x00, 0x00, 0x00, 0x00, 0x0a, 0x00, 0x0c, 0x00, 0x00, 0x00, 0x08, 0x00, 0x04, 0x00, 0x0a, 0x00, 0x00, 0x00, 0x08, 0x00, 0x00, 0x00, 0x0c, 0x00, 0x00, 0x00, 0x01, 0x00, 0x00, 0x00, 0x0f, 0x00, 0x00, 0x00, 0x01, 0x00, 0x00, 0x00, 0x00, 0x00, 0x00, 0x00, 0x01, 0x00, 0x00, 0x00, 0x20, 0x00, 0x00, 0x00, 0x01, 0x00, 0x00, 0x00, 0x00, 0x00, 0x00, 0x00, 0x21, 0x00, 0x00, 0x00, 0x3c, 0x19, 0x00, 0x00, 0xe8, 0x18, 0x00, 0x00, 0x90, 0x18, 0x00, 0x00, 0x54, 0x18, 0x00, 0x00, 0x14, 0x18, 0x00, 0x00, 0xd4, 0x17, 0x00, 0x00, 0x94, 0x17, 0x00, 0x00, 0xf4, 0x16, 0x00, 0x00, 0x5c, 0x16, 0x00, 0x00, 0x88, 0x14, 0x00, 0x00, 0xac, 0x12, 0x00, 0x00, 0xd8, 0x10, 0x00, 0x00, 0xf4, 0x0e, 0x00, 0x00, 0xe0, 0x0d, 0x00, 0x00, 0xbc, 0x0c, 0x00, 0x00, 0x44, 0x0c, 0x00, 0x00, 0x8c, 0x0b, 0x00, 0x00, 0x68, 0x0a, 0x00, 0x00, 0x70, 0x09, 0x00, 0x00, 0xc8, 0x08, 0x00, 0x00, 0x2c, 0x08, 0x00, 0x00, 0x8c, 0x07, 0x00, 0x00, 0xe4, 0x06, 0x00, 0x00, 0xb8, 0x05, 0x00, 0x00, 0xb8, 0x04, 0x00, 0x00, 0x10, 0x04, 0x00, 0x00, 0x74, 0x03, 0x00, 0x00, 0xd4, 0x02, 0x00, 0x00, 0x44, 0x02, 0x00, 0x00, 0x88, 0x01, 0x00, 0x00, 0xe4, 0x00, 0x00, 0x00, 0x60, 0x00, 0x00, 0x00, 0x04, 0x00, 0x00, 0x00, 0x5e, 0xe7, 0xff, 0xff, 0x00, 0x00, 0x00, 0x01, 0x14, 0x00, 0x00, 0x00, 0x1c, 0x00, 0x00, 0x00, 0x1c, 0x00, 0x00, 0x00, 0x21, 0x00, 0x00, 0x00, 0x34, 0x00, 0x00, 0x00, 0x02, 0x00, 0x00, 0x00, 0xff, 0xff, 0xff, 0xff, 0x05, 0x00, 0x00, 0x00, 0x44, 0xe7, 0xff, 0xff, 0x1b, 0x00, 0x00, 0x00, 0x53, 0x74, 0x61, 0x74, 0x65, 0x66, 0x75, 0x6c, 0x50, 0x61, 0x72, 0x74, 0x69, 0x74, 0x69, 0x6f, 0x6e, 0x65, 0x64, 0x43, 0x61, 0x6c, 0x6c, 0x5f, 0x31, 0x3a, 0x30, 0x00, 0x02, 0x00, 0x00, 0x00, 0x01, 0x00, 0x00, 0x00, 0x05, 0x00, 0x00, 0x00, 0x72, 0xf4, 0xff, 0xff, 0x00, 0x00, 0x00, 0x01, 0x18, 0x00, 0x00, 0x00, 0x20, 0x00, 0x00, 0x00, 0x40, 0x00, 0x00, 0x00, 0x20, 0x00, 0x00, 0x00, 0x00, 0x00, 0x00, 0x09, 0x58, 0x00, 0x00, 0x00, 0x02, 0x00, 0x00, 0x00, 0xff, 0xff, 0xff, 0xff, 0x05, 0x00, 0x00, 0x00, 0xdc, 0xe9, 0xff, 0xff, 0x08, 0x00, 0x00, 0x00, 0x14, 0x00, 0x00, 0x00, 0x01, 0x00, 0x00, 0x00, 0x80, 0xff, 0xff, 0xff, 0xff, 0xff, 0xff, 0xff, 0x00, 0x00, 0x00, 0x00, 0x01, 0x00, 0x00, 0x00, 0x00, 0x00, 0x80, 0x3b, 0x1c, 0x00, 0x00, 0x00, 0x53, 0x74, 0x61, 0x74, 0x65, 0x66, 0x75, 0x6c, 0x50, 0x61, 0x72, 0x74, 0x69, 0x74, 0x69, 0x6f, 0x6e, 0x65, 0x64, 0x43, 0x61, 0x6c, 0x6c, 0x5f, 0x31, 0x3a, 0x30, 0x31, 0x00, 0x00, 0x00, 0x00, 0x02, 0x00, 0x00, 0x00, 0x01, 0x00, 0x00, 0x00, 0x05, 0x00, 0x00, 0x00, 0xf2, 0xf4, 0xff, 0xff, 0x00, 0x00, 0x00, 0x01, 0x18, 0x00, 0x00, 0x00, 0x20, 0x00, 0x00, 0x00, 0x3c, 0x00, 0x00, 0x00, 0x1f, 0x00, 0x00, 0x00, 0x00, 0x00, 0x00, 0x09, 0x78, 0x00, 0x00, 0x00, 0x02, 0x00, 0x00, 0x00, 0xff, 0xff, 0xff, 0xff, 0x05, 0x00, 0x00, 0x00, 0x5c, 0xea, 0xff, 0xff, 0x08, 0x00, 0x00, 0x00, 0x10, 0x00, 0x00, 0x00, 0x01, 0x00, 0x00, 0x00, 0xea, 0xff, 0xff, 0xff, 0xff, 0xff, 0xff, 0xff, 0x01, 0x00, 0x00, 0x00, 0x88, 0xd4, 0xe2, 0x3d, 0x42, 0x00, 0x00, 0x00, 0x43, 0x6f, 0x6d, 0x70, 0x61, 0x63, 0x74, 0x5f, 0x43, 0x4e, 0x4e, 0x31, 0x44, 0x5f, 0x31, 0x2f, 0x64, 0x65, 0x6e, 0x73, 0x65, 0x5f, 0x31, 0x5f, 0x32, 0x2f, 0x4d, 0x61, 0x74, 0x4d, 0x75, 0x6c, 0x3b, 0x43, 0x6f, 0x6d, 0x70, 0x61, 0x63, 0x74, 0x5f, 0x43, 0x4e, 0x4e, 0x31, 0x44, 0x5f, 0x31, 0x2f, 0x64, 0x65, 0x6e, 0x73, 0x65, 0x5f, 0x31, 0x5f, 0x32, 0x2f, 0x42, 0x69, 0x61, 0x73, 0x41, 0x64, 0x64, 0x00, 0x00, 0x02, 0x00, 0x00, 0x00, 0x01, 0x00, 0x00, 0x00, 0x05, 0x00, 0x00, 0x00, 0x92, 0xf5, 0xff, 0xff, 0x00, 0x00, 0x00, 0x01, 0x18, 0x00, 0x00, 0x00, 0x20, 0x00, 0x00, 0x00, 0x3c, 0x00, 0x00, 0x00, 0x1e, 0x00, 0x00, 0x00, 0x00, 0x00, 0x00, 0x09, 0x90, 0x00, 0x00, 0x00, 0x02, 0x00, 0x00, 0x00, 0xff, 0xff, 0xff, 0xff, 0x20, 0x00, 0x00, 0x00, 0xfc, 0xea, 0xff, 0xff, 0x08, 0x00, 0x00, 0x00, 0x10, 0x00, 0x00, 0x00, 0x01, 0x00, 0x00, 0x00, 0x80, 0xff, 0xff, 0xff, 0xff, 0xff, 0xff, 0xff, 0x01, 0x00, 0x00, 0x00, 0xb3, 0x75, 0x0b, 0x3d, 0x5b, 0x00, 0x00, 0x00, 0x43, 0x6f, 0x6d, 0x70, 0x61, 0x63, 0x74, 0x5f, 0x43, 0x4e, 0x4e, 0x31, 0x44, 0x5f, 0x31, 0x2f, 0x64, 0x65, 0x6e, 0x73, 0x65, 0x5f, 0x31, 0x2f, 0x4d, 0x61, 0x74, 0x4d, 0x75, 0x6c, 0x3b, 0x43, 0x6f, 0x6d, 0x70, 0x61, 0x63, 0x74, 0x5f, 0x43, 0x4e, 0x4e, 0x31, 0x44, 0x5f, 0x31, 0x2f, 0x64, 0x65, 0x6e, 0x73, 0x65, 0x5f, 0x31, 0x2f, 0x52, 0x65, 0x6c, 0x75, 0x3b, 0x43, 0x6f, 0x6d, 0x70, 0x61, 0x63, 0x74, 0x5f, 0x43, 0x4e, 0x4e, 0x31, 0x44, 0x5f, 0x31, 0x2f, 0x64, 0x65, 0x6e, 0x73, 0x65, 0x5f, 0x31, 0x2f, 0x42, 0x69, 0x61, 0x73, 0x41, 0x64, 0x64, 0x00, 0x02, 0x00, 0x00, 0x00, 0x01, 0x00, 0x00, 0x00, 0x20, 0x00, 0x00, 0x00, 0x4a, 0xf6, 0xff, 0xff, 0x00, 0x00, 0x00, 0x01, 0x18, 0x00, 0x00, 0x00, 0x20, 0x00, 0x00, 0x00, 0x3c, 0x00, 0x00, 0x00, 0x1d, 0x00, 0x00, 0x00, 0x00, 0x00, 0x00, 0x09, 0x64, 0x00, 0x00, 0x00, 0x02, 0x00, 0x00, 0x00, 0xff, 0xff, 0xff, 0xff, 0x20, 0x00, 0x00, 0x00, 0xb4, 0xeb, 0xff, 0xff, 0x08, 0x00, 0x00, 0x00, 0x10, 0x00, 0x00, 0x00, 0x01, 0x00, 0x00, 0x00, 0x80, 0xff, 0xff, 0xff, 0xff, 0xff, 0xff, 0xff, 0x01, 0x00, 0x00, 0x00, 0xbe, 0x29, 0xad, 0x3c, 0x2f, 0x00, 0x00, 0x00, 0x43, 0x6f, 0x6d, 0x70, 0x61, 0x63, 0x74, 0x5f, 0x43, 0x4e, 0x4e, 0x31, 0x44, 0x5f, 0x31, 0x2f, 0x67, 0x6c, 0x6f, 0x62, 0x61, 0x6c, 0x5f, 0x61, 0x76, 0x65, 0x72, 0x61, 0x67, 0x65, 0x5f, 0x70, 0x6f, 0x6f, 0x6c, 0x69, 0x6e, 0x67, 0x31, 0x64, 0x5f, 0x31, 0x2f, 0x4d, 0x65, 0x61, 0x6e, 0x00, 0x02, 0x00, 0x00, 0x00, 0x01, 0x00, 0x00, 0x00, 0x20, 0x00, 0x00, 0x00, 0xd6, 0xf6, 0xff, 0xff, 0x00, 0x00, 0x00, 0x01, 0x18, 0x00, 0x00, 0x00, 0x24, 0x00, 0x00, 0x00, 0x44, 0x00, 0x00, 0x00, 0x1c, 0x00, 0x00, 0x00, 0x00, 0x00, 0x00, 0x09, 0x70, 0x00, 0x00, 0x00, 0x03, 0x00, 0x00, 0x00, 0xff, 0xff, 0xff, 0xff, 0x25, 0x00, 0x00, 0x00, 0x20, 0x00, 0x00, 0x00, 0x44, 0xec, 0xff, 0xff, 0x08, 0x00, 0x00, 0x00, 0x14, 0x00, 0x00, 0x00, 0x01, 0x00, 0x00, 0x00, 0x80, 0xff, 0xff, 0xff, 0xff, 0xff, 0xff, 0xff, 0x00, 0x00, 0x00, 0x00, 0x01, 0x00, 0x00, 0x00, 0xbb, 0x38, 0x34, 0x3d, 0x33, 0x00, 0x00, 0x00, 0x43, 0x6f, 0x6d, 0x70, 0x61, 0x63, 0x74, 0x5f, 0x43, 0x4e, 0x4e, 0x31, 0x44, 0x5f, 0x31, 0x2f, 0x6d, 0x61, 0x78, 0x5f, 0x70, 0x6f, 0x6f, 0x6c, 0x69, 0x6e, 0x67, 0x31, 0x64, 0x5f, 0x31, 0x5f, 0x32, 0x2f, 0x4d, 0x61, 0x78, 0x50, 0x6f, 0x6f, 0x6c, 0x31, 0x64, 0x2f, 0x53, 0x71, 0x75, 0x65, 0x65, 0x7a, 0x65, 0x00, 0x03, 0x00, 0x00, 0x00, 0x01, 0x00, 0x00, 0x00, 0x25, 0x00, 0x00, 0x00, 0x20, 0x00, 0x00, 0x00, 0x72, 0xf7, 0xff, 0xff, 0x00, 0x00, 0x00, 0x01, 0x18, 0x00, 0x00, 0x00, 0x28, 0x00, 0x00, 0x00, 0x44, 0x00, 0x00, 0x00, 0x1b, 0x00, 0x00, 0x00, 0x00, 0x00, 0x00, 0x09, 0x68, 0x00, 0x00, 0x00, 0x04, 0x00, 0x00, 0x00, 0xff, 0xff, 0xff, 0xff, 0x01, 0x00, 0x00, 0x00, 0x25, 0x00, 0x00, 0x00, 0x20, 0x00, 0x00, 0x00, 0xe4, 0xec, 0xff, 0xff, 0x08, 0x00, 0x00, 0x00, 0x10, 0x00, 0x00, 0x00, 0x01, 0x00, 0x00, 0x00, 0x80, 0xff, 0xff, 0xff, 0xff, 0xff, 0xff, 0xff, 0x01, 0x00, 0x00, 0x00, 0xbb, 0x38, 0x34, 0x3d, 0x2b, 0x00, 0x00, 0x00, 0x43, 0x6f, 0x6d, 0x70, 0x61, 0x63, 0x74, 0x5f, 0x43, 0x4e, 0x4e, 0x31, 0x44, 0x5f, 0x31, 0x2f, 0x6d, 0x61, 0x78, 0x5f, 0x70, 0x6f, 0x6f, 0x6c, 0x69, 0x6e, 0x67, 0x31, 0x64, 0x5f, 0x31, 0x5f, 0x32, 0x2f, 0x4d, 0x61, 0x78, 0x50, 0x6f, 0x6f, 0x6c, 0x31, 0x64, 0x00, 0x04, 0x00, 0x00, 0x00, 0x01, 0x00, 0x00, 0x00, 0x01, 0x00, 0x00, 0x00, 0x25, 0x00, 0x00, 0x00, 0x20, 0x00, 0x00, 0x00, 0x0a, 0xf8, 0xff, 0xff, 0x00, 0x00, 0x00, 0x01, 0x18, 0x00, 0x00, 0x00, 0x28, 0x00, 0x00, 0x00, 0x44, 0x00, 0x00, 0x00, 0x1a, 0x00, 0x00, 0x00, 0x00, 0x00, 0x00, 0x09, 0x74, 0x00, 0x00, 0x00, 0x04, 0x00, 0x00, 0x00, 0xff, 0xff, 0xff, 0xff, 0x01, 0x00, 0x00, 0x00, 0x4b, 0x00, 0x00, 0x00, 0x20, 0x00, 0x00, 0x00, 0x7c, 0xed, 0xff, 0xff, 0x08, 0x00, 0x00, 0x00, 0x10, 0x00, 0x00, 0x00, 0x01, 0x00, 0x00, 0x00, 0x80, 0xff, 0xff, 0xff, 0xff, 0xff, 0xff, 0xff, 0x01, 0x00, 0x00, 0x00, 0xbb, 0x38, 0x34, 0x3d, 0x36, 0x00, 0x00, 0x00, 0x43, 0x6f, 0x6d, 0x70, 0x61, 0x63, 0x74, 0x5f, 0x43, 0x4e, 0x4e, 0x31, 0x44, 0x5f, 0x31, 0x2f, 0x6d, 0x61, 0x78, 0x5f, 0x70, 0x6f, 0x6f, 0x6c, 0x69, 0x6e, 0x67, 0x31, 0x64, 0x5f, 0x31, 0x5f, 0x32, 0x2f, 0x4d, 0x61, 0x78, 0x50, 0x6f, 0x6f, 0x6c, 0x31, 0x64, 0x2f, 0x45, 0x78, 0x70, 0x61, 0x6e, 0x64, 0x44, 0x69, 0x6d, 0x73, 0x00, 0x00, 0x04, 0x00, 0x00, 0x00, 0x01, 0x00, 0x00, 0x00, 0x01, 0x00, 0x00, 0x00, 0x4b, 0x00, 0x00, 0x00, 0x20, 0x00, 0x00, 0x00, 0xae, 0xf8, 0xff, 0xff, 0x00, 0x00, 0x00, 0x01, 0x18, 0x00, 0x00, 0x00, 0x24, 0x00, 0x00, 0x00, 0x40, 0x00, 0x00, 0x00, 0x19, 0x00, 0x00, 0x00, 0x00, 0x00, 0x00, 0x09, 0xd0, 0x00, 0x00, 0x00, 0x03, 0x00, 0x00, 0x00, 0xff, 0xff, 0xff, 0xff, 0x4b, 0x00, 0x00, 0x00, 0x20, 0x00, 0x00, 0x00, 0x1c, 0xee, 0xff, 0xff, 0x08, 0x00, 0x00, 0x00, 0x10, 0x00, 0x00, 0x00, 0x01, 0x00, 0x00, 0x00, 0x80, 0xff, 0xff, 0xff, 0xff, 0xff, 0xff, 0xff, 0x01, 0x00, 0x00, 0x00, 0xbb, 0x38, 0x34, 0x3d, 0x94, 0x00, 0x00, 0x00, 0x43, 0x6f, 0x6d, 0x70, 0x61, 0x63, 0x74, 0x5f, 0x43, 0x4e, 0x4e, 0x31, 0x44, 0x5f, 0x31, 0x2f, 0x63, 0x6f, 0x6e, 0x76, 0x31, 0x64, 0x5f, 0x31, 0x5f, 0x32, 0x2f, 0x52, 0x65, 0x6c, 0x75, 0x3b, 0x43, 0x6f, 0x6d, 0x70, 0x61, 0x63, 0x74, 0x5f, 0x43, 0x4e, 0x4e, 0x31, 0x44, 0x5f, 0x31, 0x2f, 0x63, 0x6f, 0x6e, 0x76, 0x31, 0x64, 0x5f, 0x31, 0x5f, 0x32, 0x2f, 0x42, 0x69, 0x61, 0x73, 0x41, 0x64, 0x64, 0x3b, 0x43, 0x6f, 0x6d, 0x70, 0x61, 0x63, 0x74, 0x5f, 0x43, 0x4e, 0x4e, 0x31, 0x44, 0x5f, 0x31, 0x2f, 0x63, 0x6f, 0x6e, 0x76, 0x31, 0x64, 0x5f, 0x31, 0x5f, 0x32, 0x2f, 0x63, 0x6f, 0x6e, 0x76, 0x6f, 0x6c, 0x75, 0x74, 0x69, 0x6f, 0x6e, 0x2f, 0x53, 0x71, 0x75, 0x65, 0x65, 0x7a, 0x65, 0x3b, 0x43, 0x6f, 0x6d, 0x70, 0x61, 0x63, 0x74, 0x5f, 0x43, 0x4e, 0x4e, 0x31, 0x44, 0x5f, 0x31, 0x2f, 0x63, 0x6f, 0x6e, 0x76, 0x31, 0x64, 0x5f, 0x31, 0x5f, 0x32, 0x2f, 0x53, 0x71, 0x75, 0x65, 0x65, 0x7a, 0x65, 0x00, 0x00, 0x00, 0x00, 0x03, 0x00, 0x00, 0x00, 0x01, 0x00, 0x00, 0x00, 0x4b, 0x00, 0x00, 0x00, 0x20, 0x00, 0x00, 0x00, 0xaa, 0xf9, 0xff, 0xff, 0x00, 0x00, 0x00, 0x01, 0x18, 0x00, 0x00, 0x00, 0x28, 0x00, 0x00, 0x00, 0x44, 0x00, 0x00, 0x00, 0x18, 0x00, 0x00, 0x00, 0x00, 0x00, 0x00, 0x09, 0xf8, 0x00, 0x00, 0x00, 0x04, 0x00, 0x00, 0x00, 0xff, 0xff, 0xff, 0xff, 0x01, 0x00, 0x00, 0x00, 0x4b, 0x00, 0x00, 0x00, 0x20, 0x00, 0x00, 0x00, 0x1c, 0xef, 0xff, 0xff, 0x08, 0x00, 0x00, 0x00, 0x10, 0x00, 0x00, 0x00, 0x01, 0x00, 0x00, 0x00, 0x80, 0xff, 0xff, 0xff, 0xff, 0xff, 0xff, 0xff, 0x01, 0x00, 0x00, 0x00, 0xbb, 0x38, 0x34, 0x3d, 0xbb, 0x00, 0x00, 0x00, 0x43, 0x6f, 0x6d, 0x70, 0x61, 0x63, 0x74, 0x5f, 0x43, 0x4e, 0x4e, 0x31, 0x44, 0x5f, 0x31, 0x2f, 0x63, 0x6f, 0x6e, 0x76, 0x31, 0x64, 0x5f, 0x31, 0x5f, 0x32, 0x2f, 0x52, 0x65, 0x6c, 0x75, 0x3b, 0x43, 0x6f, 0x6d, 0x70, 0x61, 0x63, 0x74, 0x5f, 0x43, 0x4e, 0x4e, 0x31, 0x44, 0x5f, 0x31, 0x2f, 0x63, 0x6f, 0x6e, 0x76, 0x31, 0x64, 0x5f, 0x31, 0x5f, 0x32, 0x2f, 0x42, 0x69, 0x61, 0x73, 0x41, 0x64, 0x64, 0x3b, 0x43, 0x6f, 0x6d, 0x70, 0x61, 0x63, 0x74, 0x5f, 0x43, 0x4e, 0x4e, 0x31, 0x44, 0x5f, 0x31, 0x2f, 0x63, 0x6f, 0x6e, 0x76, 0x31, 0x64, 0x5f, 0x31, 0x5f, 0x32, 0x2f, 0x63, 0x6f, 0x6e, 0x76, 0x6f, 0x6c, 0x75, 0x74, 0x69, 0x6f, 0x6e, 0x2f, 0x53, 0x71, 0x75, 0x65, 0x65, 0x7a, 0x65, 0x3b, 0x43, 0x6f, 0x6d, 0x70, 0x61, 0x63, 0x74, 0x5f, 0x43, 0x4e, 0x4e, 0x31, 0x44, 0x5f, 0x31, 0x2f, 0x63, 0x6f, 0x6e, 0x76, 0x31, 0x64, 0x5f, 0x31, 0x5f, 0x32, 0x2f, 0x53, 0x71, 0x75, 0x65, 0x65, 0x7a, 0x65, 0x3b, 0x43, 0x6f, 0x6d, 0x70, 0x61, 0x63, 0x74, 0x5f, 0x43, 0x4e, 0x4e, 0x31, 0x44, 0x5f, 0x31, 0x2f, 0x63, 0x6f, 0x6e, 0x76, 0x31, 0x64, 0x5f, 0x31, 0x5f, 0x32, 0x2f, 0x63, 0x6f, 0x6e, 0x76, 0x6f, 0x6c, 0x75, 0x74, 0x69, 0x6f, 0x6e, 0x00, 0x04, 0x00, 0x00, 0x00, 0x01, 0x00, 0x00, 0x00, 0x01, 0x00, 0x00, 0x00, 0x4b, 0x00, 0x00, 0x00, 0x20, 0x00, 0x00, 0x00, 0xd2, 0xfa, 0xff, 0xff, 0x00, 0x00, 0x00, 0x01, 0x18, 0x00, 0x00, 0x00, 0x28, 0x00, 0x00, 0x00, 0x48, 0x00, 0x00, 0x00, 0x17, 0x00, 0x00, 0x00, 0x00, 0x00, 0x00, 0x09, 0x74, 0x00, 0x00, 0x00, 0x04, 0x00, 0x00, 0x00, 0xff, 0xff, 0xff, 0xff, 0x01, 0x00, 0x00, 0x00, 0x4b, 0x00, 0x00, 0x00, 0x10, 0x00, 0x00, 0x00, 0x44, 0xf0, 0xff, 0xff, 0x08, 0x00, 0x00, 0x00, 0x14, 0x00, 0x00, 0x00, 0x01, 0x00, 0x00, 0x00, 0x80, 0xff, 0xff, 0xff, 0xff, 0xff, 0xff, 0xff, 0x00, 0x00, 0x00, 0x00, 0x01, 0x00, 0x00, 0x00, 0xd9, 0x95, 0xbc, 0x3c, 0x31, 0x00, 0x00, 0x00, 0x43, 0x6f, 0x6d, 0x70, 0x61, 0x63, 0x74, 0x5f, 0x43, 0x4e, 0x4e, 0x31, 0x44, 0x5f, 0x31, 0x2f, 0x63, 0x6f, 0x6e, 0x76, 0x31, 0x64, 0x5f, 0x31, 0x5f, 0x32, 0x2f, 0x63, 0x6f, 0x6e, 0x76, 0x6f, 0x6c, 0x75, 0x74, 0x69, 0x6f, 0x6e, 0x2f, 0x45, 0x78, 0x70, 0x61, 0x6e, 0x64, 0x44, 0x69, 0x6d, 0x73, 0x00, 0x00, 0x00, 0x04, 0x00, 0x00, 0x00, 0x01, 0x00, 0x00, 0x00, 0x01, 0x00, 0x00, 0x00, 0x4b, 0x00, 0x00, 0x00, 0x10, 0x00, 0x00, 0x00, 0x76, 0xfb, 0xff, 0xff, 0x00, 0x00, 0x00, 0x01, 0x18, 0x00, 0x00, 0x00, 0x24, 0x00, 0x00, 0x00, 0x44, 0x00, 0x00, 0x00, 0x16, 0x00, 0x00, 0x00, 0x00, 0x00, 0x00, 0x09, 0x70, 0x00, 0x00, 0x00, 0x03, 0x00, 0x00, 0x00, 0xff, 0xff, 0xff, 0xff, 0x4b, 0x00, 0x00, 0x00, 0x10, 0x00, 0x00, 0x00, 0xe4, 0xf0, 0xff, 0xff, 0x08, 0x00, 0x00, 0x00, 0x14, 0x00, 0x00, 0x00, 0x01, 0x00, 0x00, 0x00, 0x80, 0xff, 0xff, 0xff, 0xff, 0xff, 0xff, 0xff, 0x00, 0x00, 0x00, 0x00, 0x01, 0x00, 0x00, 0x00, 0xd9, 0x95, 0xbc, 0x3c, 0x31, 0x00, 0x00, 0x00, 0x43, 0x6f, 0x6d, 0x70, 0x61, 0x63, 0x74, 0x5f, 0x43, 0x4e, 0x4e, 0x31, 0x44, 0x5f, 0x31, 0x2f, 0x6d, 0x61, 0x78, 0x5f, 0x70, 0x6f, 0x6f, 0x6c, 0x69, 0x6e, 0x67, 0x31, 0x64, 0x5f, 0x31, 0x2f, 0x4d, 0x61, 0x78, 0x50, 0x6f, 0x6f, 0x6c, 0x31, 0x64, 0x2f, 0x53, 0x71, 0x75, 0x65, 0x65, 0x7a, 0x65, 0x00, 0x00, 0x00, 0x03, 0x00, 0x00, 0x00, 0x01, 0x00, 0x00, 0x00, 0x4b, 0x00, 0x00, 0x00, 0x10, 0x00, 0x00, 0x00, 0x12, 0xfc, 0xff, 0xff, 0x00, 0x00, 0x00, 0x01, 0x18, 0x00, 0x00, 0x00, 0x28, 0x00, 0x00, 0x00, 0x44, 0x00, 0x00, 0x00, 0x15, 0x00, 0x00, 0x00, 0x00, 0x00, 0x00, 0x09, 0x68, 0x00, 0x00, 0x00, 0x04, 0x00, 0x00, 0x00, 0xff, 0xff, 0xff, 0xff, 0x01, 0x00, 0x00, 0x00, 0x4b, 0x00, 0x00, 0x00, 0x10, 0x00, 0x00, 0x00, 0x84, 0xf1, 0xff, 0xff, 0x08, 0x00, 0x00, 0x00, 0x10, 0x00, 0x00, 0x00, 0x01, 0x00, 0x00, 0x00, 0x80, 0xff, 0xff, 0xff, 0xff, 0xff, 0xff, 0xff, 0x01, 0x00, 0x00, 0x00, 0xd9, 0x95, 0xbc, 0x3c, 0x29, 0x00, 0x00, 0x00, 0x43, 0x6f, 0x6d, 0x70, 0x61, 0x63, 0x74, 0x5f, 0x43, 0x4e, 0x4e, 0x31, 0x44, 0x5f, 0x31, 0x2f, 0x6d, 0x61, 0x78, 0x5f, 0x70, 0x6f, 0x6f, 0x6c, 0x69, 0x6e, 0x67, 0x31, 0x64, 0x5f, 0x31, 0x2f, 0x4d, 0x61, 0x78, 0x50, 0x6f, 0x6f, 0x6c, 0x31, 0x64, 0x00, 0x00, 0x00, 0x04, 0x00, 0x00, 0x00, 0x01, 0x00, 0x00, 0x00, 0x01, 0x00, 0x00, 0x00, 0x4b, 0x00, 0x00, 0x00, 0x10, 0x00, 0x00, 0x00, 0xaa, 0xfc, 0xff, 0xff, 0x00, 0x00, 0x00, 0x01, 0x18, 0x00, 0x00, 0x00, 0x28, 0x00, 0x00, 0x00, 0x44, 0x00, 0x00, 0x00, 0x14, 0x00, 0x00, 0x00, 0x00, 0x00, 0x00, 0x09, 0x74, 0x00, 0x00, 0x00, 0x04, 0x00, 0x00, 0x00, 0xff, 0xff, 0xff, 0xff, 0x01, 0x00, 0x00, 0x00, 0x96, 0x00, 0x00, 0x00, 0x10, 0x00, 0x00, 0x00, 0x1c, 0xf2, 0xff, 0xff, 0x08, 0x00, 0x00, 0x00, 0x10, 0x00, 0x00, 0x00, 0x01, 0x00, 0x00, 0x00, 0x80, 0xff, 0xff, 0xff, 0xff, 0xff, 0xff, 0xff, 0x01, 0x00, 0x00, 0x00, 0xd9, 0x95, 0xbc, 0x3c, 0x34, 0x00, 0x00, 0x00, 0x43, 0x6f, 0x6d, 0x70, 0x61, 0x63, 0x74, 0x5f, 0x43, 0x4e, 0x4e, 0x31, 0x44, 0x5f, 0x31, 0x2f, 0x6d, 0x61, 0x78, 0x5f, 0x70, 0x6f, 0x6f, 0x6c, 0x69, 0x6e, 0x67, 0x31, 0x64, 0x5f, 0x31, 0x2f, 0x4d, 0x61, 0x78, 0x50, 0x6f, 0x6f, 0x6c, 0x31, 0x64, 0x2f, 0x45, 0x78, 0x70, 0x61, 0x6e, 0x64, 0x44, 0x69, 0x6d, 0x73, 0x00, 0x00, 0x00, 0x00, 0x04, 0x00, 0x00, 0x00, 0x01, 0x00, 0x00, 0x00, 0x01, 0x00, 0x00, 0x00, 0x96, 0x00, 0x00, 0x00, 0x10, 0x00, 0x00, 0x00, 0x4e, 0xfd, 0xff, 0xff, 0x00, 0x00, 0x00, 0x01, 0x18, 0x00, 0x00, 0x00, 0x24, 0x00, 0x00, 0x00, 0x40, 0x00, 0x00, 0x00, 0x13, 0x00, 0x00, 0x00, 0x00, 0x00, 0x00, 0x09, 0xc8, 0x00, 0x00, 0x00, 0x03, 0x00, 0x00, 0x00, 0xff, 0xff, 0xff, 0xff, 0x96, 0x00, 0x00, 0x00, 0x10, 0x00, 0x00, 0x00, 0xbc, 0xf2, 0xff, 0xff, 0x08, 0x00, 0x00, 0x00, 0x10, 0x00, 0x00, 0x00, 0x01, 0x00, 0x00, 0x00, 0x80, 0xff, 0xff, 0xff, 0xff, 0xff, 0xff, 0xff, 0x01, 0x00, 0x00, 0x00, 0xd9, 0x95, 0xbc, 0x3c, 0x8c, 0x00, 0x00, 0x00, 0x43, 0x6f, 0x6d, 0x70, 0x61, 0x63, 0x74, 0x5f, 0x43, 0x4e, 0x4e, 0x31, 0x44, 0x5f, 0x31, 0x2f, 0x63, 0x6f, 0x6e, 0x76, 0x31, 0x64, 0x5f, 0x31, 0x2f, 0x52, 0x65, 0x6c, 0x75, 0x3b, 0x43, 0x6f, 0x6d, 0x70, 0x61, 0x63, 0x74, 0x5f, 0x43, 0x4e, 0x4e, 0x31, 0x44, 0x5f, 0x31, 0x2f, 0x63, 0x6f, 0x6e, 0x76, 0x31, 0x64, 0x5f, 0x31, 0x2f, 0x42, 0x69, 0x61, 0x73, 0x41, 0x64, 0x64, 0x3b, 0x43, 0x6f, 0x6d, 0x70, 0x61, 0x63, 0x74, 0x5f, 0x43, 0x4e, 0x4e, 0x31, 0x44, 0x5f, 0x31, 0x2f, 0x63, 0x6f, 0x6e, 0x76, 0x31, 0x64, 0x5f, 0x31, 0x2f, 0x63, 0x6f, 0x6e, 0x76, 0x6f, 0x6c, 0x75, 0x74, 0x69, 0x6f, 0x6e, 0x2f, 0x53, 0x71, 0x75, 0x65, 0x65, 0x7a, 0x65, 0x3b, 0x43, 0x6f, 0x6d, 0x70, 0x61, 0x63, 0x74, 0x5f, 0x43, 0x4e, 0x4e, 0x31, 0x44, 0x5f, 0x31, 0x2f, 0x63, 0x6f, 0x6e, 0x76, 0x31, 0x64, 0x5f, 0x31, 0x2f, 0x53, 0x71, 0x75, 0x65, 0x65, 0x7a, 0x65, 0x00, 0x00, 0x00, 0x00, 0x03, 0x00, 0x00, 0x00, 0x01, 0x00, 0x00, 0x00, 0x96, 0x00, 0x00, 0x00, 0x10, 0x00, 0x00, 0x00, 0x42, 0xfe, 0xff, 0xff, 0x00, 0x00, 0x00, 0x01, 0x18, 0x00, 0x00, 0x00, 0x28, 0x00, 0x00, 0x00, 0x44, 0x00, 0x00, 0x00, 0x12, 0x00, 0x00, 0x00, 0x00, 0x00, 0x00, 0x09, 0xf0, 0x00, 0x00, 0x00, 0x04, 0x00, 0x00, 0x00, 0xff, 0xff, 0xff, 0xff, 0x01, 0x00, 0x00, 0x00, 0x96, 0x00, 0x00, 0x00, 0x10, 0x00, 0x00, 0x00, 0xb4, 0xf3, 0xff, 0xff, 0x08, 0x00, 0x00, 0x00, 0x10, 0x00, 0x00, 0x00, 0x01, 0x00, 0x00, 0x00, 0x80, 0xff, 0xff, 0xff, 0xff, 0xff, 0xff, 0xff, 0x01, 0x00, 0x00, 0x00, 0xd9, 0x95, 0xbc, 0x3c, 0xb1, 0x00, 0x00, 0x00, 0x43, 0x6f, 0x6d, 0x70, 0x61, 0x63, 0x74, 0x5f, 0x43, 0x4e, 0x4e, 0x31, 0x44, 0x5f, 0x31, 0x2f, 0x63, 0x6f, 0x6e, 0x76, 0x31, 0x64, 0x5f, 0x31, 0x2f, 0x52, 0x65, 0x6c, 0x75, 0x3b, 0x43, 0x6f, 0x6d, 0x70, 0x61, 0x63, 0x74, 0x5f, 0x43, 0x4e, 0x4e, 0x31, 0x44, 0x5f, 0x31, 0x2f, 0x63, 0x6f, 0x6e, 0x76, 0x31, 0x64, 0x5f, 0x31, 0x2f, 0x42, 0x69, 0x61, 0x73, 0x41, 0x64, 0x64, 0x3b, 0x43, 0x6f, 0x6d, 0x70, 0x61, 0x63, 0x74, 0x5f, 0x43, 0x4e, 0x4e, 0x31, 0x44, 0x5f, 0x31, 0x2f, 0x63, 0x6f, 0x6e, 0x76, 0x31, 0x64, 0x5f, 0x31, 0x2f, 0x63, 0x6f, 0x6e, 0x76, 0x6f, 0x6c, 0x75, 0x74, 0x69, 0x6f, 0x6e, 0x2f, 0x53, 0x71, 0x75, 0x65, 0x65, 0x7a, 0x65, 0x3b, 0x43, 0x6f, 0x6d, 0x70, 0x61, 0x63, 0x74, 0x5f, 0x43, 0x4e, 0x4e, 0x31, 0x44, 0x5f, 0x31, 0x2f, 0x63, 0x6f, 0x6e, 0x76, 0x31, 0x64, 0x5f, 0x31, 0x2f, 0x53, 0x71, 0x75, 0x65, 0x65, 0x7a, 0x65, 0x3b, 0x43, 0x6f, 0x6d, 0x70, 0x61, 0x63, 0x74, 0x5f, 0x43, 0x4e, 0x4e, 0x31, 0x44, 0x5f, 0x31, 0x2f, 0x63, 0x6f, 0x6e, 0x76, 0x31, 0x64, 0x5f, 0x31, 0x2f, 0x63, 0x6f, 0x6e, 0x76, 0x6f, 0x6c, 0x75, 0x74, 0x69, 0x6f, 0x6e, 0x00, 0x00, 0x00, 0x04, 0x00, 0x00, 0x00, 0x01, 0x00, 0x00, 0x00, 0x01, 0x00, 0x00, 0x00, 0x96, 0x00, 0x00, 0x00, 0x10, 0x00, 0x00, 0x00, 0x62, 0xff, 0xff, 0xff, 0x00, 0x00, 0x00, 0x01, 0x18, 0x00, 0x00, 0x00, 0x28, 0x00, 0x00, 0x00, 0x44, 0x00, 0x00, 0x00, 0x11, 0x00, 0x00, 0x00, 0x00, 0x00, 0x00, 0x09, 0x6c, 0x00, 0x00, 0x00, 0x04, 0x00, 0x00, 0x00, 0xff, 0xff, 0xff, 0xff, 0x01, 0x00, 0x00, 0x00, 0x96, 0x00, 0x00, 0x00, 0x03, 0x00, 0x00, 0x00, 0xd4, 0xf4, 0xff, 0xff, 0x08, 0x00, 0x00, 0x00, 0x10, 0x00, 0x00, 0x00, 0x01, 0x00, 0x00, 0x00, 0xfa, 0xff, 0xff, 0xff, 0xff, 0xff, 0xff, 0xff, 0x01, 0x00, 0x00, 0x00, 0x9f, 0x32, 0x09, 0x3d, 0x2f, 0x00, 0x00, 0x00, 0x43, 0x6f, 0x6d, 0x70, 0x61, 0x63, 0x74, 0x5f, 0x43, 0x4e, 0x4e, 0x31, 0x44, 0x5f, 0x31, 0x2f, 0x63, 0x6f, 0x6e, 0x76, 0x31, 0x64, 0x5f, 0x31, 0x2f, 0x63, 0x6f, 0x6e, 0x76, 0x6f, 0x6c, 0x75, 0x74, 0x69, 0x6f, 0x6e, 0x2f, 0x45, 0x78, 0x70, 0x61, 0x6e, 0x64, 0x44, 0x69, 0x6d, 0x73, 0x00, 0x04, 0x00, 0x00, 0x00, 0x01, 0x00, 0x00, 0x00, 0x01, 0x00, 0x00, 0x00, 0x96, 0x00, 0x00, 0x00, 0x03, 0x00, 0x00, 0x00, 0x00, 0x00, 0x16, 0x00, 0x20, 0x00, 0x1c, 0x00, 0x1b, 0x00, 0x14, 0x00, 0x10, 0x00, 0x0c, 0x00, 0x00, 0x00, 0x00, 0x00, 0x08, 0x00, 0x07, 0x00, 0x16, 0x00, 0x00, 0x00, 0x00, 0x00, 0x00, 0x01, 0x18, 0x00, 0x00, 0x00, 0x24, 0x00, 0x00, 0x00, 0x40, 0x00, 0x00, 0x00, 0x10, 0x00, 0x00, 0x00, 0x00, 0x00, 0x00, 0x09, 0x48, 0x00, 0x00, 0x00, 0x03, 0x00, 0x00, 0x00, 0xff, 0xff, 0xff, 0xff, 0x96, 0x00, 0x00, 0x00, 0x03, 0x00, 0x00, 0x00, 0x84, 0xf5, 0xff, 0xff, 0x08, 0x00, 0x00, 0x00, 0x10, 0x00, 0x00, 0x00, 0x01, 0x00, 0x00, 0x00, 0xfa, 0xff, 0xff, 0xff, 0xff, 0xff, 0xff, 0xff, 0x01, 0x00, 0x00, 0x00, 0x9f, 0x32, 0x09, 0x3d, 0x0c, 0x00, 0x00, 0x00, 0x74, 0x66, 0x6c, 0x2e, 0x71, 0x75, 0x61, 0x6e, 0x74, 0x69, 0x7a, 0x65, 0x00, 0x00, 0x00, 0x00, 0x03, 0x00, 0x00, 0x00, 0x01, 0x00, 0x00, 0x00, 0x96, 0x00, 0x00, 0x00, 0x03, 0x00, 0x00, 0x00, 0x1e, 0xf4, 0xff, 0xff, 0x00, 0x00, 0x00, 0x01, 0x14, 0x00, 0x00, 0x00, 0xe8, 0x00, 0x00, 0x00, 0x0f, 0x00, 0x00, 0x00, 0x00, 0x00, 0x00, 0x09, 0xf4, 0x00, 0x00, 0x00, 0xe4, 0xf5, 0xff, 0xff, 0x08, 0x00, 0x00, 0x00, 0x8c, 0x00, 0x00, 0x00, 0x10, 0x00, 0x00, 0x00, 0x00, 0x00, 0x00, 0x00, 0x00, 0x00, 0x00, 0x00, 0x00, 0x00, 0x00, 0x00, 0x00, 0x00, 0x00, 0x00, 0x00, 0x00, 0x00, 0x00, 0x00, 0x00, 0x00, 0x00, 0x00, 0x00, 0x00, 0x00, 0x00, 0x00, 0x00, 0x00, 0x00, 0x00, 0x00, 0x00, 0x00, 0x00, 0x00, 0x00, 0x00, 0x00, 0x00, 0x00, 0x00, 0x00, 0x00, 0x00, 0x00, 0x00, 0x00, 0x00, 0x00, 0x00, 0x00, 0x00, 0x00, 0x00, 0x00, 0x00, 0x00, 0x00, 0x00, 0x00, 0x00, 0x00, 0x00, 0x00, 0x00, 0x00, 0x00, 0x00, 0x00, 0x00, 0x00, 0x00, 0x00, 0x00, 0x00, 0x00, 0x00, 0x00, 0x00, 0x00, 0x00, 0x00, 0x00, 0x00, 0x00, 0x00, 0x00, 0x00, 0x00, 0x00, 0x00, 0x00, 0x00, 0x00, 0x00, 0x00, 0x00, 0x00, 0x00, 0x00, 0x00, 0x00, 0x00, 0x00, 0x00, 0x00, 0x00, 0x00, 0x00, 0x00, 0x00, 0x00, 0x00, 0x00, 0x00, 0x00, 0x00, 0x00, 0x00, 0x00, 0x00, 0x00, 0x00, 0x00, 0x00, 0x00, 0x00, 0x00, 0x10, 0x00, 0x00, 0x00, 0x78, 0x6c, 0x5c, 0x3b, 0x95, 0x1d, 0x21, 0x3b, 0x8e, 0x7a, 0x44, 0x3b, 0xc9, 0x82, 0x45, 0x3b, 0xf5, 0x45, 0x57, 0x3b, 0x2a, 0x9a, 0x2f, 0x3b, 0xbb, 0xf0, 0x5c, 0x3b, 0xae, 0x99, 0x24, 0x3b, 0x3b, 0x0a, 0x28, 0x3b, 0xd6, 0x9d, 0x12, 0x3b, 0x5a, 0xad, 0x7b, 0x3b, 0x37, 0x24, 0x4d, 0x3b, 0xe4, 0x29, 0x28, 0x3b, 0xc5, 0x34, 0x41, 0x3b, 0xc9, 0xbc, 0x37, 0x3b, 0x1f, 0x2c, 0x4c, 0x3b, 0x12, 0x00, 0x00, 0x00, 0x74, 0x66, 0x6c, 0x2e, 0x70, 0x73, 0x65, 0x75, 0x64, 0x6f, 0x5f, 0x71, 0x63, 0x6f, 0x6e, 0x73, 0x74, 0x37, 0x00, 0x00, 0x04, 0x00, 0x00, 0x00, 0x10, 0x00, 0x00, 0x00, 0x01, 0x00, 0x00, 0x00, 0x05, 0x00, 0x00, 0x00, 0x03, 0x00, 0x00, 0x00, 0x3e, 0xf5, 0xff, 0xff, 0x00, 0x00, 0x00, 0x01, 0x14, 0x00, 0x00, 0x00, 0xe4, 0x00, 0x00, 0x00, 0x0e, 0x00, 0x00, 0x00, 0x00, 0x00, 0x00, 0x02, 0xf0, 0x00, 0x00, 0x00, 0x04, 0xf7, 0xff, 0xff, 0x08, 0x00, 0x00, 0x00, 0x88, 0x00, 0x00, 0x00, 0x10, 0x00, 0x00, 0x00, 0x00, 0x00, 0x00, 0x00, 0x00, 0x00, 0x00, 0x00, 0x00, 0x00, 0x00, 0x00, 0x00, 0x00, 0x00, 0x00, 0x00, 0x00, 0x00, 0x00, 0x00, 0x00, 0x00, 0x00, 0x00, 0x00, 0x00, 0x00, 0x00, 0x00, 0x00, 0x00, 0x00, 0x00, 0x00, 0x00, 0x00, 0x00, 0x00, 0x00, 0x00, 0x00, 0x00, 0x00, 0x00, 0x00, 0x00, 0x00, 0x00, 0x00, 0x00, 0x00, 0x00, 0x00, 0x00, 0x00, 0x00, 0x00, 0x00, 0x00, 0x00, 0x00, 0x00, 0x00, 0x00, 0x00, 0x00, 0x00, 0x00, 0x00, 0x00, 0x00, 0x00, 0x00, 0x00, 0x00, 0x00, 0x00, 0x00, 0x00, 0x00, 0x00, 0x00, 0x00, 0x00, 0x00, 0x00, 0x00, 0x00, 0x00, 0x00, 0x00, 0x00, 0x00, 0x00, 0x00, 0x00, 0x00, 0x00, 0x00, 0x00, 0x00, 0x00, 0x00, 0x00, 0x00, 0x00, 0x00, 0x00, 0x00, 0x00, 0x00, 0x00, 0x00, 0x00, 0x00, 0x00, 0x00, 0x00, 0x00, 0x00, 0x00, 0x00, 0x00, 0x00, 0x00, 0x00, 0x00, 0x10, 0x00, 0x00, 0x00, 0x45, 0x43, 0xec, 0x38, 0x61, 0xb1, 0xac, 0x38, 0xe0, 0x98, 0xd2, 0x38, 0x18, 0xb4, 0xd3, 0x38, 0x03, 0xbe, 0xe6, 0x38, 0x73, 0x38, 0xbc, 0x38, 0x09, 0xd1, 0xec, 0x38, 0x95, 0x6d, 0xb0, 0x38, 0x68, 0x1d, 0xb4, 0x38, 0xeb, 0x26, 0x9d, 0x38, 0x89, 0xe1, 0x06, 0x39, 0xe4, 0xe1, 0xdb, 0x38, 0x57, 0x3f, 0xb4, 0x38, 0xe3, 0x16, 0xcf, 0x38, 0xb9, 0xf0, 0xc4, 0x38, 0xf8, 0xd7, 0xda, 0x38, 0x12, 0x00, 0x00, 0x00, 0x74, 0x66, 0x6c, 0x2e, 0x70, 0x73, 0x65, 0x75, 0x64, 0x6f, 0x5f, 0x71, 0x63, 0x6f, 0x6e, 0x73, 0x74, 0x36, 0x00, 0x00, 0x01, 0x00, 0x00, 0x00, 0x10, 0x00, 0x00, 0x00, 0x4e, 0xf6, 0xff, 0xff, 0x00, 0x00, 0x00, 0x01, 0x14, 0x00, 0x00, 0x00, 0xa8, 0x01, 0x00, 0x00, 0x0d, 0x00, 0x00, 0x00, 0x00, 0x00, 0x00, 0x09, 0xb4, 0x01, 0x00, 0x00, 0x14, 0xf8, 0xff, 0xff, 0x08, 0x00, 0x00, 0x00, 0x0c, 0x01, 0x00, 0x00, 0x20, 0x00, 0x00, 0x00, 0x00, 0x00, 0x00, 0x00, 0x00, 0x00, 0x00, 0x00, 0x00, 0x00, 0x00, 0x00, 0x00, 0x00, 0x00, 0x00, 0x00, 0x00, 0x00, 0x00, 0x00, 0x00, 0x00, 0x00, 0x00, 0x00, 0x00, 0x00, 0x00, 0x00, 0x00, 0x00, 0x00, 0x00, 0x00, 0x00, 0x00, 0x00, 0x00, 0x00, 0x00, 0x00, 0x00, 0x00, 0x00, 0x00, 0x00, 0x00, 0x00, 0x00, 0x00, 0x00, 0x00, 0x00, 0x00, 0x00, 0x00, 0x00, 0x00, 0x00, 0x00, 0x00, 0x00, 0x00, 0x00, 0x00, 0x00, 0x00, 0x00, 0x00, 0x00, 0x00, 0x00, 0x00, 0x00, 0x00, 0x00, 0x00, 0x00, 0x00, 0x00, 0x00, 0x00, 0x00, 0x00, 0x00, 0x00, 0x00, 0x00, 0x00, 0x00, 0x00, 0x00, 0x00, 0x00, 0x00, 0x00, 0x00, 0x00, 0x00, 0x00, 0x00, 0x00, 0x00, 0x00, 0x00, 0x00, 0x00, 0x00, 0x00, 0x00, 0x00, 0x00, 0x00, 0x00, 0x00, 0x00, 0x00, 0x00, 0x00, 0x00, 0x00, 0x00, 0x00, 0x00, 0x00, 0x00, 0x00, 0x00, 0x00, 0x00, 0x00, 0x00, 0x00, 0x00, 0x00, 0x00, 0x00, 0x00, 0x00, 0x00, 0x00, 0x00, 0x00, 0x00, 0x00, 0x00, 0x00, 0x00, 0x00, 0x00, 0x00, 0x00, 0x00, 0x00, 0x00, 0x00, 0x00, 0x00, 0x00, 0x00, 0x00, 0x00, 0x00, 0x00, 0x00, 0x00, 0x00, 0x00, 0x00, 0x00, 0x00, 0x00, 0x00, 0x00, 0x00, 0x00, 0x00, 0x00, 0x00, 0x00, 0x00, 0x00, 0x00, 0x00, 0x00, 0x00, 0x00, 0x00, 0x00, 0x00, 0x00, 0x00, 0x00, 0x00, 0x00, 0x00, 0x00, 0x00, 0x00, 0x00, 0x00, 0x00, 0x00, 0x00, 0x00, 0x00, 0x00, 0x00, 0x00, 0x00, 0x00, 0x00, 0x00, 0x00, 0x00, 0x00, 0x00, 0x00, 0x00, 0x00, 0x00, 0x00, 0x00, 0x00, 0x00, 0x00, 0x00, 0x00, 0x00, 0x00, 0x00, 0x00, 0x00, 0x00, 0x00, 0x00, 0x00, 0x00, 0x00, 0x00, 0x00, 0x00, 0x00, 0x00, 0x00, 0x00, 0x00, 0x00, 0x00, 0x00, 0x00, 0x00, 0x00, 0x00, 0x00, 0x00, 0x00, 0x00, 0x00, 0x20, 0x00, 0x00, 0x00, 0x68, 0x0f, 0x26, 0x3b, 0x9c, 0x05, 0x36, 0x3b, 0xe5, 0xa4, 0x20, 0x3b, 0xdd, 0xfb, 0x1e, 0x3b, 0x87, 0xd0, 0x1b, 0x3b, 0x70, 0x3b, 0x20, 0x3b, 0xa7, 0x4c, 0x30, 0x3b, 0x27, 0x34, 0x20, 0x3b, 0x37, 0x87, 0x09, 0x3b, 0x70, 0xc0, 0x07, 0x3b, 0x81, 0xa4, 0x2c, 0x3b, 0xd4, 0x6a, 0x2b, 0x3b, 0x30, 0x82, 0x1c, 0x3b, 0xa6, 0xcf, 0x31, 0x3b, 0xfb, 0x98, 0x35, 0x3b, 0xd3, 0x69, 0xf8, 0x3a, 0x17, 0xc4, 0x22, 0x3b, 0x46, 0xba, 0x22, 0x3b, 0xb9, 0x08, 0x2c, 0x3b, 0x59, 0x8b, 0x2d, 0x3b, 0xc2, 0x48, 0x25, 0x3b, 0xcf, 0x5c, 0xfd, 0x3a, 0x6a, 0xae, 0x04, 0x3b, 0x32, 0x15, 0x0c, 0x3b, 0x51, 0x9a, 0x55, 0x3b, 0x33, 0x19, 0x2b, 0x3b, 0xc9, 0x83, 0x2c, 0x3b, 0xc8, 0x60, 0x2f, 0x3b, 0x17, 0x6a, 0x38, 0x3b, 0x25, 0x42, 0x4a, 0x3b, 0xb3, 0x45, 0x42, 0x3b, 0x81, 0xad, 0x07, 0x3b, 0x12, 0x00, 0x00, 0x00, 0x74, 0x66, 0x6c, 0x2e, 0x70, 0x73, 0x65, 0x75, 0x64, 0x6f, 0x5f, 0x71, 0x63, 0x6f, 0x6e, 0x73, 0x74, 0x35, 0x00, 0x00, 0x04, 0x00, 0x00, 0x00, 0x20, 0x00, 0x00, 0x00, 0x01, 0x00, 0x00, 0x00, 0x03, 0x00, 0x00, 0x00, 0x10, 0x00, 0x00, 0x00, 0x2e, 0xf8, 0xff, 0xff, 0x00, 0x00, 0x00, 0x01, 0x14, 0x00, 0x00, 0x00, 0xa4, 0x01, 0x00, 0x00, 0x0c, 0x00, 0x00, 0x00, 0x00, 0x00, 0x00, 0x02, 0xb0, 0x01, 0x00, 0x00, 0xf4, 0xf9, 0xff, 0xff, 0x08, 0x00, 0x00, 0x00, 0x08, 0x01, 0x00, 0x00, 0x20, 0x00, 0x00, 0x00, 0x00, 0x00, 0x00, 0x00, 0x00, 0x00, 0x00, 0x00, 0x00, 0x00, 0x00, 0x00, 0x00, 0x00, 0x00, 0x00, 0x00, 0x00, 0x00, 0x00, 0x00, 0x00, 0x00, 0x00, 0x00, 0x00, 0x00, 0x00, 0x00, 0x00, 0x00, 0x00, 0x00, 0x00, 0x00, 0x00, 0x00, 0x00, 0x00, 0x00, 0x00, 0x00, 0x00, 0x00, 0x00, 0x00, 0x00, 0x00, 0x00, 0x00, 0x00, 0x00, 0x00, 0x00, 0x00, 0x00, 0x00, 0x00, 0x00, 0x00, 0x00, 0x00, 0x00, 0x00, 0x00, 0x00, 0x00, 0x00, 0x00, 0x00, 0x00, 0x00, 0x00, 0x00, 0x00, 0x00, 0x00, 0x00, 0x00, 0x00, 0x00, 0x00, 0x00, 0x00, 0x00, 0x00, 0x00, 0x00, 0x00, 0x00, 0x00, 0x00, 0x00, 0x00, 0x00, 0x00, 0x00, 0x00, 0x00, 0x00, 0x00, 0x00, 0x00, 0x00, 0x00, 0x00, 0x00, 0x00, 0x00, 0x00, 0x00, 0x00, 0x00, 0x00, 0x00, 0x00, 0x00, 0x00, 0x00, 0x00, 0x00, 0x00, 0x00, 0x00, 0x00, 0x00, 0x00, 0x00, 0x00, 0x00, 0x00, 0x00, 0x00, 0x00, 0x00, 0x00, 0x00, 0x00, 0x00, 0x00, 0x00, 0x00, 0x00, 0x00, 0x00, 0x00, 0x00, 0x00, 0x00, 0x00, 0x00, 0x00, 0x00, 0x00, 0x00, 0x00, 0x00, 0x00, 0x00, 0x00, 0x00, 0x00, 0x00, 0x00, 0x00, 0x00, 0x00, 0x00, 0x00, 0x00, 0x00, 0x00, 0x00, 0x00, 0x00, 0x00, 0x00, 0x00, 0x00, 0x00, 0x00, 0x00, 0x00, 0x00, 0x00, 0x00, 0x00, 0x00, 0x00, 0x00, 0x00, 0x00, 0x00, 0x00, 0x00, 0x00, 0x00, 0x00, 0x00, 0x00, 0x00, 0x00, 0x00, 0x00, 0x00, 0x00, 0x00, 0x00, 0x00, 0x00, 0x00, 0x00, 0x00, 0x00, 0x00, 0x00, 0x00, 0x00, 0x00, 0x00, 0x00, 0x00, 0x00, 0x00, 0x00, 0x00, 0x00, 0x00, 0x00, 0x00, 0x00, 0x00, 0x00, 0x00, 0x00, 0x00, 0x00, 0x00, 0x00, 0x00, 0x00, 0x00, 0x00, 0x00, 0x00, 0x00, 0x00, 0x00, 0x00, 0x00, 0x00, 0x00, 0x00, 0x00, 0x00, 0x00, 0x20, 0x00, 0x00, 0x00, 0x08, 0xa9, 0x74, 0x38, 0xaa, 0x16, 0x86, 0x38, 0x41, 0xae, 0x6c, 0x38, 0x0b, 0x3c, 0x6a, 0x38, 0xaf, 0x90, 0x65, 0x38, 0xe1, 0x12, 0x6c, 0x38, 0x7d, 0xdf, 0x81, 0x38, 0x26, 0x08, 0x6c, 0x38, 0x99, 0x9f, 0x4a, 0x38, 0x91, 0x01, 0x48, 0x38, 0xba, 0x5b, 0x7e, 0x38, 0x94, 0x8d, 0x7c, 0x38, 0x6f, 0x96, 0x66, 0x38, 0x92, 0xfc, 0x82, 0x38, 0xa4, 0xc6, 0x85, 0x38, 0x1f, 0xff, 0x36, 0x38, 0x8e, 0xce, 0x6f, 0x38, 0x18, 0xc0, 0x6f, 0x38, 0x36, 0x76, 0x7d, 0x38, 0xd5, 0xaf, 0x7f, 0x38, 0x5c, 0x84, 0x73, 0x38, 0x76, 0xa4, 0x3a, 0x38, 0x80, 0x7b, 0x43, 0x38, 0x20, 0x63, 0x4e, 0x38, 0x5b, 0x5a, 0x9d, 0x38, 0x50, 0x15, 0x7c, 0x38, 0x85, 0x2b, 0x7e, 0x38, 0xbb, 0x31, 0x81, 0x38, 0xdb, 0xd9, 0x87, 0x38, 0xf7, 0xfe, 0x94, 0x38, 0xe7, 0x1c, 0x8f, 0x38, 0xab, 0xe5, 0x47, 0x38, 0x12, 0x00, 0x00, 0x00, 0x74, 0x66, 0x6c, 0x2e, 0x70, 0x73, 0x65, 0x75, 0x64, 0x6f, 0x5f, 0x71, 0x63, 0x6f, 0x6e, 0x73, 0x74, 0x34, 0x00, 0x00, 0x01, 0x00, 0x00, 0x00, 0x20, 0x00, 0x00, 0x00, 0xfe, 0xf9, 0xff, 0xff, 0x00, 0x00, 0x00, 0x01, 0x14, 0x00, 0x00, 0x00, 0xa8, 0x01, 0x00, 0x00, 0x0b, 0x00, 0x00, 0x00, 0x00, 0x00, 0x00, 0x09, 0xb4, 0x01, 0x00, 0x00, 0xc4, 0xfb, 0xff, 0xff, 0x08, 0x00, 0x00, 0x00, 0x0c, 0x01, 0x00, 0x00, 0x20, 0x00, 0x00, 0x00, 0x00, 0x00, 0x00, 0x00, 0x00, 0x00, 0x00, 0x00, 0x00, 0x00, 0x00, 0x00, 0x00, 0x00, 0x00, 0x00, 0x00, 0x00, 0x00, 0x00, 0x00, 0x00, 0x00, 0x00, 0x00, 0x00, 0x00, 0x00, 0x00, 0x00, 0x00, 0x00, 0x00, 0x00, 0x00, 0x00, 0x00, 0x00, 0x00, 0x00, 0x00, 0x00, 0x00, 0x00, 0x00, 0x00, 0x00, 0x00, 0x00, 0x00, 0x00, 0x00, 0x00, 0x00, 0x00, 0x00, 0x00, 0x00, 0x00, 0x00, 0x00, 0x00, 0x00, 0x00, 0x00, 0x00, 0x00, 0x00, 0x00, 0x00, 0x00, 0x00, 0x00, 0x00, 0x00, 0x00, 0x00, 0x00, 0x00, 0x00, 0x00, 0x00, 0x00, 0x00, 0x00, 0x00, 0x00, 0x00, 0x00, 0x00, 0x00, 0x00, 0x00, 0x00, 0x00, 0x00, 0x00, 0x00, 0x00, 0x00, 0x00, 0x00, 0x00, 0x00, 0x00, 0x00, 0x00, 0x00, 0x00, 0x00, 0x00, 0x00, 0x00, 0x00, 0x00, 0x00, 0x00, 0x00, 0x00, 0x00, 0x00, 0x00, 0x00, 0x00, 0x00, 0x00, 0x00, 0x00, 0x00, 0x00, 0x00, 0x00, 0x00, 0x00, 0x00, 0x00, 0x00, 0x00, 0x00, 0x00, 0x00, 0x00, 0x00, 0x00, 0x00, 0x00, 0x00, 0x00, 0x00, 0x00, 0x00, 0x00, 0x00, 0x00, 0x00, 0x00, 0x00, 0x00, 0x00, 0x00, 0x00, 0x00, 0x00, 0x00, 0x00, 0x00, 0x00, 0x00, 0x00, 0x00, 0x00, 0x00, 0x00, 0x00, 0x00, 0x00, 0x00, 0x00, 0x00, 0x00, 0x00, 0x00, 0x00, 0x00, 0x00, 0x00, 0x00, 0x00, 0x00, 0x00, 0x00, 0x00, 0x00, 0x00, 0x00, 0x00, 0x00, 0x00, 0x00, 0x00, 0x00, 0x00, 0x00, 0x00, 0x00, 0x00, 0x00, 0x00, 0x00, 0x00, 0x00, 0x00, 0x00, 0x00, 0x00, 0x00, 0x00, 0x00, 0x00, 0x00, 0x00, 0x00, 0x00, 0x00, 0x00, 0x00, 0x00, 0x00, 0x00, 0x00, 0x00, 0x00, 0x00, 0x00, 0x00, 0x00, 0x00, 0x00, 0x00, 0x00, 0x00, 0x00, 0x00, 0x00, 0x00, 0x00, 0x00, 0x00, 0x00, 0x00, 0x00, 0x00, 0x00, 0x00, 0x00, 0x00, 0x00, 0x00, 0x00, 0x00, 0x20, 0x00, 0x00, 0x00, 0xeb, 0xb8, 0x54, 0x3b, 0x8f, 0x33, 0x58, 0x3b, 0xd4, 0x22, 0x23, 0x3b, 0x0b, 0x1e, 0x26, 0x3b, 0x51, 0xad, 0x44, 0x3b, 0xe2, 0x99, 0x3d, 0x3b, 0xbd, 0x05, 0x58, 0x3b, 0x70, 0xc6, 0x37, 0x3b, 0x92, 0x20, 0x52, 0x3b, 0x38, 0x31, 0x20, 0x3b, 0x3b, 0x76, 0x80, 0x3b, 0xfe, 0x07, 0x47, 0x3b, 0xca, 0x94, 0x54, 0x3b, 0x02, 0x08, 0x3c, 0x3b, 0xa4, 0x37, 0x67, 0x3b, 0x3c, 0xd3, 0x29, 0x3b, 0xca, 0x63, 0x09, 0x3b, 0x05, 0xaa, 0x24, 0x3b, 0xcd, 0xb0, 0x54, 0x3b, 0x89, 0x4d, 0x66, 0x3b, 0xf6, 0x1e, 0x89, 0x3b, 0x35, 0x35, 0x42, 0x3b, 0xca, 0x75, 0x26, 0x3b, 0x1a, 0x52, 0x42, 0x3b, 0x57, 0xe2, 0x35, 0x3b, 0x28, 0xe4, 0x33, 0x3b, 0x5f, 0xbd, 0x20, 0x3b, 0x8c, 0x27, 0x64, 0x3b, 0xa5, 0x19, 0x85, 0x3b, 0x51, 0x13, 0x18, 0x3b, 0x90, 0x75, 0x55, 0x3b, 0xaa, 0x2f, 0x25, 0x3b, 0x12, 0x00, 0x00, 0x00, 0x74, 0x66, 0x6c, 0x2e, 0x70, 0x73, 0x65, 0x75, 0x64, 0x6f, 0x5f, 0x71, 0x63, 0x6f, 0x6e, 0x73, 0x74, 0x33, 0x00, 0x00, 0x02, 0x00, 0x00, 0x00, 0x20, 0x00, 0x00, 0x00, 0x20, 0x00, 0x00, 0x00, 0xd6, 0xfb, 0xff, 0xff, 0x00, 0x00, 0x00, 0x01, 0x14, 0x00, 0x00, 0x00, 0xa4, 0x01, 0x00, 0x00, 0x0a, 0x00, 0x00, 0x00, 0x00, 0x00, 0x00, 0x02, 0xb0, 0x01, 0x00, 0x00, 0x9c, 0xfd, 0xff, 0xff, 0x08, 0x00, 0x00, 0x00, 0x08, 0x01, 0x00, 0x00, 0x20, 0x00, 0x00, 0x00, 0x00, 0x00, 0x00, 0x00, 0x00, 0x00, 0x00, 0x00, 0x00, 0x00, 0x00, 0x00, 0x00, 0x00, 0x00, 0x00, 0x00, 0x00, 0x00, 0x00, 0x00, 0x00, 0x00, 0x00, 0x00, 0x00, 0x00, 0x00, 0x00, 0x00, 0x00, 0x00, 0x00, 0x00, 0x00, 0x00, 0x00, 0x00, 0x00, 0x00, 0x00, 0x00, 0x00, 0x00, 0x00, 0x00, 0x00, 0x00, 0x00, 0x00, 0x00, 0x00, 0x00, 0x00, 0x00, 0x00, 0x00, 0x00, 0x00, 0x00, 0x00, 0x00, 0x00, 0x00, 0x00, 0x00, 0x00, 0x00, 0x00, 0x00, 0x00, 0x00, 0x00, 0x00, 0x00, 0x00, 0x00, 0x00, 0x00, 0x00, 0x00, 0x00, 0x00, 0x00, 0x00, 0x00, 0x00, 0x00, 0x00, 0x00, 0x00, 0x00, 0x00, 0x00, 0x00, 0x00, 0x00, 0x00, 0x00, 0x00, 0x00, 0x00, 0x00, 0x00, 0x00, 0x00, 0x00, 0x00, 0x00, 0x00, 0x00, 0x00, 0x00, 0x00, 0x00, 0x00, 0x00, 0x00, 0x00, 0x00, 0x00, 0x00, 0x00, 0x00, 0x00, 0x00, 0x00, 0x00, 0x00, 0x00, 0x00, 0x00, 0x00, 0x00, 0x00, 0x00, 0x00, 0x00, 0x00, 0x00, 0x00, 0x00, 0x00, 0x00, 0x00, 0x00, 0x00, 0x00, 0x00, 0x00, 0x00, 0x00, 0x00, 0x00, 0x00, 0x00, 0x00, 0x00, 0x00, 0x00, 0x00, 0x00, 0x00, 0x00, 0x00, 0x00, 0x00, 0x00, 0x00, 0x00, 0x00, 0x00, 0x00, 0x00, 0x00, 0x00, 0x00, 0x00, 0x00, 0x00, 0x00, 0x00, 0x00, 0x00, 0x00, 0x00, 0x00, 0x00, 0x00, 0x00, 0x00, 0x00, 0x00, 0x00, 0x00, 0x00, 0x00, 0x00, 0x00, 0x00, 0x00, 0x00, 0x00, 0x00, 0x00, 0x00, 0x00, 0x00, 0x00, 0x00, 0x00, 0x00, 0x00, 0x00, 0x00, 0x00, 0x00, 0x00, 0x00, 0x00, 0x00, 0x00, 0x00, 0x00, 0x00, 0x00, 0x00, 0x00, 0x00, 0x00, 0x00, 0x00, 0x00, 0x00, 0x00, 0x00, 0x00, 0x00, 0x00, 0x00, 0x00, 0x00, 0x00, 0x00, 0x00, 0x00, 0x00, 0x00, 0x00, 0x00, 0x00, 0x00, 0x00, 0x00, 0x00, 0x00, 0x20, 0x00, 0x00, 0x00, 0xa6, 0xe3, 0x8f, 0x38, 0x18, 0x3e, 0x92, 0x38, 0x46, 0xb2, 0x5c, 0x38, 0xc7, 0xba, 0x60, 0x38, 0x31, 0x09, 0x85, 0x38, 0xe8, 0x3f, 0x80, 0x38, 0x1a, 0x1f, 0x92, 0x38, 0x22, 0x9e, 0x78, 0x38, 0x46, 0x22, 0x8e, 0x38, 0xc3, 0xb6, 0x58, 0x38, 0xb0, 0xc9, 0xad, 0x38, 0xdb, 0xa0, 0x86, 0x38, 0x36, 0xcb, 0x8f, 0x38, 0x24, 0x60, 0x7e, 0x38, 0x4d, 0x66, 0x9c, 0x38, 0xe1, 0xbe, 0x65, 0x38, 0xad, 0xdd, 0x39, 0x38, 0x7e, 0xc3, 0x5e, 0x38, 0x29, 0xde, 0x8f, 0x38, 0xf3, 0xc7, 0x9b, 0x38, 0x90, 0x80, 0xb9, 0x38, 0x9f, 0x5d, 0x83, 0x38, 0x7c, 0x31, 0x61, 0x38, 0x2b, 0x71, 0x83, 0x38, 0x3a, 0x0f, 0x76, 0x38, 0x08, 0x5d, 0x73, 0x38, 0x5e, 0x74, 0x59, 0x38, 0xed, 0x53, 0x9a, 0x38, 0x11, 0x10, 0xb4, 0x38, 0xb3, 0xbb, 0x4d, 0x38, 0x41, 0x63, 0x90, 0x38, 0x4a, 0x78, 0x5f, 0x38, 0x12, 0x00, 0x00, 0x00, 0x74, 0x66, 0x6c, 0x2e, 0x70, 0x73, 0x65, 0x75, 0x64, 0x6f, 0x5f, 0x71, 0x63, 0x6f, 0x6e, 0x73, 0x74, 0x32, 0x00, 0x00, 0x01, 0x00, 0x00, 0x00, 0x20, 0x00, 0x00, 0x00, 0xa6, 0xfd, 0xff, 0xff, 0x00, 0x00, 0x00, 0x01, 0x14, 0x00, 0x00, 0x00, 0x64, 0x00, 0x00, 0x00, 0x09, 0x00, 0x00, 0x00, 0x00, 0x00, 0x00, 0x09, 0x70, 0x00, 0x00, 0x00, 0x6c, 0xff, 0xff, 0xff, 0x08, 0x00, 0x00, 0x00, 0x34, 0x00, 0x00, 0x00, 0x05, 0x00, 0x00, 0x00, 0x00, 0x00, 0x00, 0x00, 0x00, 0x00, 0x00, 0x00, 0x00, 0x00, 0x00, 0x00, 0x00, 0x00, 0x00, 0x00, 0x00, 0x00, 0x00, 0x00, 0x00, 0x00, 0x00, 0x00, 0x00, 0x00, 0x00, 0x00, 0x00, 0x00, 0x00, 0x00, 0x00, 0x00, 0x00, 0x00, 0x00, 0x00, 0x00, 0x00, 0x00, 0x00, 0x00, 0x00, 0x05, 0x00, 0x00, 0x00, 0x70, 0x00, 0x8a, 0x3b, 0x3b, 0x9d, 0x9e, 0x3b, 0x41, 0xcd, 0x99, 0x3b, 0x7e, 0x5d, 0x81, 0x3b, 0x4f, 0xaa, 0x9d, 0x3b, 0x12, 0x00, 0x00, 0x00, 0x74, 0x66, 0x6c, 0x2e, 0x70, 0x73, 0x65, 0x75, 0x64, 0x6f, 0x5f, 0x71, 0x63, 0x6f, 0x6e, 0x73, 0x74, 0x31, 0x00, 0x00, 0x02, 0x00, 0x00, 0x00, 0x05, 0x00, 0x00, 0x00, 0x20, 0x00, 0x00, 0x00, 0x3a, 0xfe, 0xff, 0xff, 0x00, 0x00, 0x00, 0x01, 0x20, 0x00, 0x00, 0x00, 0x70, 0x00, 0x00, 0x00, 0x08, 0x00, 0x00, 0x00, 0x00, 0x00, 0x00, 0x02, 0x7c, 0x00, 0x00, 0x00, 0x0c, 0x00, 0x0c, 0x00, 0x00, 0x00, 0x00, 0x00, 0x08, 0x00, 0x04, 0x00, 0x0c, 0x00, 0x00, 0x00, 0x08, 0x00, 0x00, 0x00, 0x34, 0x00, 0x00, 0x00, 0x05, 0x00, 0x00, 0x00, 0x00, 0x00, 0x00, 0x00, 0x00, 0x00, 0x00, 0x00, 0x00, 0x00, 0x00, 0x00, 0x00, 0x00, 0x00, 0x00, 0x00, 0x00, 0x00, 0x00, 0x00, 0x00, 0x00, 0x00, 0x00, 0x00, 0x00, 0x00, 0x00, 0x00, 0x00, 0x00, 0x00, 0x00, 0x00, 0x00, 0x00, 0x00, 0x00, 0x00, 0x00, 0x00, 0x00, 0x00, 0x05, 0x00, 0x00, 0x00, 0x5f, 0x5b, 0x16, 0x39, 0x98, 0xd0, 0x2c, 0x39, 0x51, 0x92, 0x27, 0x39, 0x7b, 0xf2, 0x0c, 0x39, 0xec, 0xc7, 0x2b, 0x39, 0x11, 0x00, 0x00, 0x00, 0x74, 0x66, 0x6c, 0x2e, 0x70, 0x73, 0x65, 0x75, 0x64, 0x6f, 0x5f, 0x71, 0x63, 0x6f, 0x6e, 0x73, 0x74, 0x00, 0x00, 0x00, 0x01, 0x00, 0x00, 0x00, 0x05, 0x00, 0x00, 0x00, 0xd6, 0xfe, 0xff, 0xff, 0x00, 0x00, 0x00, 0x01, 0x14, 0x00, 0x00, 0x00, 0x14, 0x00, 0x00, 0x00, 0x07, 0x00, 0x00, 0x00, 0x00, 0x00, 0x00, 0x02, 0x1c, 0x00, 0x00, 0x00, 0x60, 0xfe, 0xff, 0xff, 0x0f, 0x00, 0x00, 0x00, 0x61, 0x72, 0x69, 0x74, 0x68, 0x2e, 0x63, 0x6f, 0x6e, 0x73, 0x74, 0x61, 0x6e, 0x74, 0x35, 0x00, 0x01, 0x00, 0x00, 0x00, 0x03, 0x00, 0x00, 0x00, 0x12, 0xff, 0xff, 0xff, 0x00, 0x00, 0x00, 0x01, 0x14, 0x00, 0x00, 0x00, 0x14, 0x00, 0x00, 0x00, 0x06, 0x00, 0x00, 0x00, 0x00, 0x00, 0x00, 0x02, 0x1c, 0x00, 0x00, 0x00, 0x9c, 0xfe, 0xff, 0xff, 0x0f, 0x00, 0x00, 0x00, 0x61, 0x72, 0x69, 0x74, 0x68, 0x2e, 0x63, 0x6f, 0x6e, 0x73, 0x74, 0x61, 0x6e, 0x74, 0x34, 0x00, 0x01, 0x00, 0x00, 0x00, 0x03, 0x00, 0x00, 0x00, 0x4e, 0xff, 0xff, 0xff, 0x00, 0x00, 0x00, 0x01, 0x14, 0x00, 0x00, 0x00, 0x14, 0x00, 0x00, 0x00, 0x05, 0x00, 0x00, 0x00, 0x00, 0x00, 0x00, 0x02, 0x1c, 0x00, 0x00, 0x00, 0xd8, 0xfe, 0xff, 0xff, 0x0f, 0x00, 0x00, 0x00, 0x61, 0x72, 0x69, 0x74, 0x68, 0x2e, 0x63, 0x6f, 0x6e, 0x73, 0x74, 0x61, 0x6e, 0x74, 0x33, 0x00, 0x01, 0x00, 0x00, 0x00, 0x03, 0x00, 0x00, 0x00, 0x8a, 0xff, 0xff, 0xff, 0x00, 0x00, 0x00, 0x01, 0x14, 0x00, 0x00, 0x00, 0x14, 0x00, 0x00, 0x00, 0x04, 0x00, 0x00, 0x00, 0x00, 0x00, 0x00, 0x02, 0x1c, 0x00, 0x00, 0x00, 0x14, 0xff, 0xff, 0xff, 0x0f, 0x00, 0x00, 0x00, 0x61, 0x72, 0x69, 0x74, 0x68, 0x2e, 0x63, 0x6f, 0x6e, 0x73, 0x74, 0x61, 0x6e, 0x74, 0x32, 0x00, 0x00, 0x00, 0x00, 0x00, 0xc2, 0xff, 0xff, 0xff, 0x00, 0x00, 0x00, 0x01, 0x14, 0x00, 0x00, 0x00, 0x14, 0x00, 0x00, 0x00, 0x03, 0x00, 0x00, 0x00, 0x00, 0x00, 0x00, 0x02, 0x1c, 0x00, 0x00, 0x00, 0x4c, 0xff, 0xff, 0xff, 0x0f, 0x00, 0x00, 0x00, 0x61, 0x72, 0x69, 0x74, 0x68, 0x2e, 0x63, 0x6f, 0x6e, 0x73, 0x74, 0x61, 0x6e, 0x74, 0x31, 0x00, 0x01, 0x00, 0x00, 0x00, 0x03, 0x00, 0x00, 0x00, 0x00, 0x00, 0x16, 0x00, 0x1c, 0x00, 0x18, 0x00, 0x17, 0x00, 0x10, 0x00, 0x0c, 0x00, 0x08, 0x00, 0x00, 0x00, 0x00, 0x00, 0x00, 0x00, 0x07, 0x00, 0x16, 0x00, 0x00, 0x00, 0x00, 0x00, 0x00, 0x01, 0x14, 0x00, 0x00, 0x00, 0x14, 0x00, 0x00, 0x00, 0x02, 0x00, 0x00, 0x00, 0x00, 0x00, 0x00, 0x02, 0x1c, 0x00, 0x00, 0x00, 0xa0, 0xff, 0xff, 0xff, 0x0e, 0x00, 0x00, 0x00, 0x61, 0x72, 0x69, 0x74, 0x68, 0x2e, 0x63, 0x6f, 0x6e, 0x73, 0x74, 0x61, 0x6e, 0x74, 0x00, 0x00, 0x00, 0x00, 0x00, 0x00, 0x00, 0x00, 0x16, 0x00, 0x1c, 0x00, 0x18, 0x00, 0x00, 0x00, 0x14, 0x00, 0x10, 0x00, 0x0c, 0x00, 0x00, 0x00, 0x00, 0x00, 0x08, 0x00, 0x07, 0x00, 0x16, 0x00, 0x00, 0x00, 0x00, 0x00, 0x00, 0x01, 0x14, 0x00, 0x00, 0x00, 0x24, 0x00, 0x00, 0x00, 0x24, 0x00, 0x00, 0x00, 0x01, 0x00, 0x00, 0x00, 0x40, 0x00, 0x00, 0x00, 0x03, 0x00, 0x00, 0x00, 0xff, 0xff, 0xff, 0xff, 0x96, 0x00, 0x00, 0x00, 0x03, 0x00, 0x00, 0x00, 0x04, 0x00, 0x04, 0x00, 0x04, 0x00, 0x00, 0x00, 0x1e, 0x00, 0x00, 0x00, 0x73, 0x65, 0x72, 0x76, 0x69, 0x6e, 0x67, 0x5f, 0x64, 0x65, 0x66, 0x61, 0x75, 0x6c, 0x74, 0x5f, 0x6b, 0x65, 0x72, 0x61, 0x73, 0x5f, 0x74, 0x65, 0x6e, 0x73, 0x6f, 0x72, 0x3a, 0x30, 0x00, 0x00, 0x03, 0x00, 0x00, 0x00, 0x01, 0x00, 0x00, 0x00, 0x96, 0x00, 0x00, 0x00, 0x03, 0x00, 0x00, 0x00, 0x09, 0x00, 0x00, 0x00, 0xb4, 0x00, 0x00, 0x00, 0x98, 0x00, 0x00, 0x00, 0x84, 0x00, 0x00, 0x00, 0x68, 0x00, 0x00, 0x00, 0x54, 0x00, 0x00, 0x00, 0x40, 0x00, 0x00, 0x00, 0x2c, 0x00, 0x00, 0x00, 0x18, 0x00, 0x00, 0x00, 0x04, 0x00, 0x00, 0x00, 0xa4, 0xff, 0xff, 0xff, 0x06, 0x00, 0x00, 0x00, 0x02, 0x00, 0x00, 0x00, 0x00, 0x00, 0x00, 0x06, 0xb4, 0xff, 0xff, 0xff, 0x19, 0x00, 0x00, 0x00, 0x02, 0x00, 0x00, 0x00, 0x00, 0x00, 0x00, 0x19, 0xc4, 0xff, 0xff, 0xff, 0x09, 0x00, 0x00, 0x00, 0x04, 0x00, 0x00, 0x00, 0x00, 0x00, 0x00, 0x09, 0xd4, 0xff, 0xff, 0xff, 0x28, 0x00, 0x00, 0x00, 0x02, 0x00, 0x00, 0x00, 0x00, 0x00, 0x00, 0x28, 0xe4, 0xff, 0xff, 0xff, 0x11, 0x00, 0x00, 0x00, 0x02, 0x00, 0x00, 0x00, 0x00, 0x00, 0x00, 0x11, 0xcc, 0xff, 0xff, 0xff, 0x16, 0x00, 0x00, 0x00, 0x00, 0x00, 0x00, 0x16, 0x0c, 0x00, 0x10, 0x00, 0x0f, 0x00, 0x00, 0x00, 0x08, 0x00, 0x04, 0x00, 0x0c, 0x00, 0x00, 0x00, 0x03, 0x00, 0x00, 0x00, 0x03, 0x00, 0x00, 0x00, 0x00, 0x00, 0x00, 0x03, 0xf4, 0xff, 0xff, 0xff, 0x46, 0x00, 0x00, 0x00, 0x00, 0x00, 0x00, 0x46, 0x0c, 0x00, 0x0c, 0x00, 0x0b, 0x00, 0x00, 0x00, 0x00, 0x00, 0x04, 0x00, 0x0c, 0x00, 0x00, 0x00, 0x72, 0x00, 0x00, 0x00, 0x00, 0x00, 0x00, 0x72
};

#endif
